[POS]	-1
[CJK]	-1
[ENG]	-1
[NUM]	-1
[WUNK]	-1
[ARROW]	-1
[FACE]	-1
[RUSH]	-1
[ORDER]	-1
[MOTH]	-1
[DAY]	-1
[TIME]	-1
[SYMBOLS]	-1
episode	11
formerly	11
australian	12
colonel	12
january	12
fifth	13
spanish	14
british	16
sometimes	16
tokrzyskie	16
hungarian	17
yellow	20
female	21
september	21
northwest	22
usually	23
canadian	24
▁doesn	24
december	26
joseph	26
▁pterostichinae	26
southern	26
february	28
november	28
reviewed	29
cllrs	30
italian	30
middle	34
northern	34
captain	35
because	37
ireland	37
entertainment	40
october	40
according	43
great	43
third	44
▁didn	50
cylinder	54
guitar	54
although	55
soviet	56
golden	57
july	57
especially	58
catholic	59
saxon	59
private	60
quality	63
without	64
particularly	72
champion	73
chicago	85
english	86
victor	90
▁enzymology	92
august	96
producer	97
http	98
before	101
eastern	102
▁colspan	111
admiral	119
london	119
finals	121
speaking	142
follow	150
profile	158
happy	161
french	166
small	183
variety	186
often	194
european	195
official	206
century	207
greek	208
prince	209
international	214
degree	217
president	222
general	230
something	234
today	239
manager	240
distance	256
june	258
called	267
either	275
driven	291
five	291
album	315
death	318
three	323
united	335
ahmad	337
between	344
frank	353
christian	370
brown	378
mediated	378
including	379
thomas	379
except	385
daily	396
command	413
louis	414
division	418
volume	423
canada	431
every	437
defense	451
april	453
only	473
director	480
since	487
when	490
▁bourgogne	495
length	495
irish	508
original	509
loire	516
which	525
heavy	530
sunday	534
minute	535
half	540
county	560
▁bashkortostan	562
operation	563
royal	563
language	611
pacific	624
alpes	628
▁qeshlaq	670
government	676
double	680
franche	693
release	700
civil	711
total	718
designated	738
africa	794
associated	796
university	816
positive	817
category	829
grossing	842
short	852
sponsored	878
resident	880
inspired	881
▁charente	918
attack	922
also	928
meaning	938
from	947
communist	963
chinese	970
editor	972
never	980
there	1001
through	1023
george	1025
project	1027
living	1039
based	1048
early	1087
banksia	1111
brother	1138
traditional	1149
strong	1173
union	1181
▁codice	1184
record	1190
brien	1208
first	1219
storey	1222
secondary	1223
binding	1229
dark	1233
office	1246
negative	1268
growing	1282
historic	1294
▁sdlp	1311
▁kielce	1313
▁khz	1320
energy	1329
france	1331
produced	1336
pounder	1344
www	1350
dependent	1382
full	1385
south	1389
they	1389
seven	1403
young	1408
hydrolase	1417
universal	1469
though	1472
conference	1478
ranking	1509
capital	1542
released	1546
▁raylan	1577
transferase	1578
shaped	1623
near	1625
blue	1626
adventure	1627
▁selsoviet	1645
super	1645
six	1654
robin	1670
who	1676
production	1694
minded	1695
professional	1699
▁zanjan	1719
daughter	1734
▁conversely	1740
business	1776
profit	1803
host	1807
silver	1813
black	1825
german	1861
authored	1913
sweet	1914
osaurus	1924
major	1940
qaeda	1940
party	1947
aquitaine	1970
dream	1977
what	1985
along	2005
yltransferase	2033
million	2052
battle	2063
ifolia	2065
kohgiluyeh	2082
religious	2088
peter	2112
running	2121
▁synopsis	2138
common	2184
after	2199
▁subcarpathian	2214
level	2216
rolling	2242
square	2246
saint	2282
founder	2311
later	2336
soul	2347
seeded	2349
eight	2356
gruppe	2370
public	2378
support	2378
▁nouvelle	2411
▁moreover	2441
chair	2454
pierre	2466
parent	2480
engine	2504
▁selo	2518
▁volgograd	2521
white	2530
winning	2532
▁ardabil	2586
russian	2601
electronic	2602
local	2617
standard	2634
terminal	2637
aircraft	2640
▁mph	2650
march	2706
blood	2717
families	2726
handed	2747
existing	2749
affiliated	2754
▁heracles	2774
auto	2780
special	2804
▁styria	2804
nominated	2811
women	2813
dead	2825
▁mhz	2837
built	2838
children	2866
phase	2872
ranked	2881
america	2891
round	2891
voice	2919
dragon	2986
that	3005
john	3025
submarine	3027
▁honeycomb	3039
recorded	3039
service	3051
spring	3054
edited	3067
similar	3067
producing	3089
club	3095
month	3115
two	3154
lived	3196
▁houseguest	3217
indian	3228
israel	3257
playing	3263
country	3267
▁http	3343
history	3344
▁faso	3381
folk	3388
acc	3409
floor	3452
seat	3455
smackdown	3465
spirit	3477
green	3502
jean	3527
little	3528
▁parkinson	3567
second	3575
facing	3578
wrote	3584
owned	3591
journal	3624
amino	3625
▁quasi	3653
bomb	3661
hour	3670
controlled	3683
▁covid	3742
acacia	3767
vocal	3813
drive	3823
acre	3833
wild	3858
secret	3870
peace	3920
colonial	3948
express	3962
weather	4033
natural	4041
evolution	4056
poll	4116
▁hokkaido	4130
appointed	4167
encyclop	4212
brow	4243
interest	4245
named	4251
uncle	4259
both	4303
video	4313
beau	4325
▁philanthropy	4328
coast	4344
william	4345
count	4401
here	4424
ovskoye	4440
grand	4451
summer	4472
eagle	4500
▁meantime	4504
cloud	4572
marie	4623
inch	4625
germain	4645
▁yeomanry	4647
semitism	4663
this	4673
float	4712
ref	4713
team	4733
series	4755
control	4794
fox	4801
▁tolkien	4802
hip	4835
placed	4839
▁entrants	4848
▁dauphin	4871
powered	4893
punk	4894
cata	4921
document	4934
queen	4940
known	4956
▁avant	4976
▁nguy	4979
elect	4991
▁burgundy	5000
educational	5017
left	5040
iii	5042
located	5058
article	5068
▁akron	5084
▁russo	5094
season	5119
euil	5128
regulation	5128
owice	5139
▁canucks	5171
html	5171
▁furthermore	5189
tank	5193
talk	5217
chief	5234
▁voivodeship	5235
vila	5264
litre	5265
▁loire	5272
▁catalyzes	5321
quarter	5357
▁hertfordshire	5364
year	5372
computer	5387
strict	5421
establish	5431
hero	5432
christ	5448
commissioned	5454
develop	5546
rule	5553
protect	5570
cliff	5572
▁demographics	5589
▁etc	5597
▁banknotes	5612
flight	5613
▁corsica	5619
▁tomorrow	5619
industri	5625
workers	5641
region	5660
▁austro	5661
aldehyde	5667
source	5677
▁freiburg	5691
health	5724
▁andalusia	5732
different	5741
▁gambia	5748
michael	5790
▁cytoplasm	5826
igny	5830
▁phosphorus	5834
▁accolades	5857
▁tucson	5871
founded	5893
teacher	5900
catch	5955
growth	5957
▁mussolini	5986
▁grandchildren	5992
reilly	5999
roux	6043
roman	6044
▁zeus	6050
▁lumpur	6052
governmental	6055
specific	6056
▁odisha	6060
street	6062
high	6070
micro	6070
▁anaheim	6077
around	6087
motion	6097
security	6107
▁comedies	6138
▁nottinghamshire	6169
such	6170
▁beethoven	6178
km	6196
▁botswana	6223
philosoph	6233
gold	6281
▁navarre	6298
▁majesty	6301
▁metacritic	6312
metal	6313
week	6317
selling	6335
easy	6339
▁barbarian	6341
sleep	6346
pter	6349
free	6362
▁bahamas	6364
▁haute	6376
faith	6381
wolf	6387
▁invaders	6397
social	6400
▁courier	6405
▁versailles	6415
▁hitchcock	6424
▁literate	6424
coup	6449
▁cemeteries	6461
▁regatta	6465
access	6472
hair	6484
protein	6487
▁judah	6503
▁brethren	6515
▁raleigh	6531
church	6558
western	6561
▁aristotle	6564
▁strasbourg	6578
▁baden	6582
▁warrington	6588
▁palermo	6590
▁dunedin	6596
neill	6604
▁ptolemy	6606
call	6609
broken	6630
▁wilmington	6631
builder	6656
▁goalscorer	6657
▁labrador	6663
▁phelps	6683
speed	6695
▁wiltshire	6700
tabil	6712
▁bethlehem	6714
come	6714
▁redistribution	6723
political	6726
center	6729
▁scorpion	6760
ovka	6766
modern	6775
break	6802
deep	6809
▁butterflies	6823
music	6828
▁impairment	6829
bund	6831
obacter	6859
▁odessa	6875
▁dewey	6879
▁nymph	6892
consider	6893
▁toulouse	6899
▁sumatra	6916
unit	6916
▁chariot	6934
grown	6970
strike	6975
▁rooster	6979
▁sarawak	6981
▁nomenclature	6986
north	6995
fiction	7025
flor	7029
family	7041
▁bros	7046
carboxy	7055
defined	7055
▁ponce	7055
thorax	7062
other	7064
river	7075
wife	7078
▁somme	7081
limit	7113
▁iroquois	7114
▁afro	7125
casualty	7141
poly	7146
ophthalm	7164
▁paterson	7167
purpose	7168
▁controversies	7172
▁susquehanna	7188
▁gardiner	7192
▁pornography	7194
▁mauritius	7210
established	7217
leave	7218
best	7224
▁canadiens	7228
▁ecoregion	7244
▁ruiz	7247
▁inflammation	7253
▁mozambique	7271
▁catalonia	7282
▁feminism	7289
paul	7289
▁scarborough	7294
wire	7299
died	7321
▁honolulu	7332
▁psychiatry	7339
▁kabul	7343
match	7351
story	7370
▁beaumont	7397
▁confederacy	7406
door	7409
occupied	7409
▁storytelling	7416
▁discography	7421
▁havana	7421
introduced	7440
▁blonde	7445
▁oppression	7461
unconstitutional	7465
▁antiquity	7468
▁innocence	7482
▁shil	7502
▁yourself	7505
▁lincolnshire	7516
▁utc	7519
radio	7521
▁johannesburg	7529
colo	7545
▁grief	7546
▁skateboard	7548
value	7576
▁fortunate	7585
▁spoon	7585
▁utrecht	7598
▁fresno	7626
bak	7631
▁destiny	7636
▁firefighters	7653
found	7665
▁dragoon	7666
▁hibern	7668
fontaine	7672
▁krasno	7678
▁coyote	7681
▁enlightenment	7686
▁oligo	7688
mile	7697
you	7699
rox	7710
fighter	7714
block	7716
acharya	7737
atlantic	7738
hydroxy	7740
▁seahawks	7747
▁gentlemen	7750
phobia	7750
▁sardinia	7753
perfect	7762
▁strauss	7777
▁funnel	7778
▁sherwood	7781
esteem	7782
▁juventus	7812
▁nuremberg	7815
coach	7817
▁genealogical	7817
▁riddle	7832
▁hutchinson	7842
▁mccain	7847
▁collingwood	7853
▁lublin	7853
▁uzbekistan	7854
▁ajax	7863
product	7879
▁aqueduct	7892
home	7906
▁captivity	7908
witch	7911
▁virgil	7912
▁steppe	7920
▁saxony	7927
▁coliseum	7933
▁fremantle	7942
▁bordeaux	7960
▁seneca	7963
string	7969
nice	7980
propelled	7982
▁appliance	7989
▁giulia	8000
food	8008
▁vaudeville	8010
justice	8011
▁einstein	8026
▁kyrgyz	8027
mobile	8035
▁counterattack	8036
▁metabolism	8041
member	8051
▁munitions	8055
self	8057
▁accessories	8058
issi	8067
location	8092
▁etymology	8094
wor	8096
soft	8097
▁spruce	8106
▁privatization	8118
fast	8132
proof	8133
clad	8142
▁raphael	8147
▁aviator	8151
▁eritrea	8167
personal	8169
▁connectivity	8177
▁fiddle	8178
▁hospitalized	8194
▁freud	8196
▁timor	8199
garde	8203
▁academies	8224
▁italia	8225
schaft	8238
▁mclean	8241
▁harald	8242
▁fuscous	8247
▁mili	8247
interpret	8251
watt	8251
▁salzburg	8252
touch	8255
colour	8261
▁featherweight	8261
▁bhutan	8262
▁extinguish	8263
final	8263
▁hercules	8269
wide	8271
leader	8278
marine	8281
▁atkinson	8287
▁oilers	8292
arab	8293
▁lb	8299
▁newsletter	8300
▁barbados	8303
▁scrutiny	8303
▁diplomacy	8308
acetyl	8317
▁zurich	8320
▁rupture	8335
partisan	8341
luftwaffe	8354
▁homicide	8366
activity	8370
shirt	8373
▁sacrament	8378
safe	8378
▁salaries	8396
▁rpm	8414
channel	8418
normal	8421
▁resurrection	8426
▁otago	8430
▁graffiti	8437
▁mccartney	8448
▁shotgun	8450
chandra	8455
▁corp	8455
girl	8458
▁retaliation	8458
▁mozart	8461
▁flynn	8481
▁snyder	8482
jurassic	8494
▁cavity	8499
▁shipwreck	8503
▁caldwell	8508
▁wichita	8508
▁amtrak	8523
▁beirut	8524
▁tsunami	8531
▁afterward	8532
▁gallagher	8539
▁lexington	8540
▁talmud	8550
▁differentiation	8551
▁staffordshire	8553
gaon	8558
hong	8567
robo	8579
section	8586
good	8593
pub	8596
route	8600
where	8604
nig	8606
▁northumberland	8606
▁squirrel	8615
▁pneumonia	8618
▁hussain	8620
▁wedge	8621
▁synthesizer	8623
enter	8625
▁penetration	8627
▁ambiguous	8632
birth	8636
▁tobago	8636
▁burnett	8638
respect	8641
▁deficiency	8650
▁anglo	8655
show	8658
▁avalanche	8661
▁chrome	8665
▁kensington	8666
▁orphanage	8678
stylized	8682
effective	8683
▁maverick	8684
earn	8689
▁proliferation	8697
▁heidelberg	8708
▁everywhere	8713
▁comrade	8714
▁hulk	8721
owner	8725
▁algae	8736
▁mechanic	8736
just	8737
opoulos	8749
▁peabody	8753
▁navajo	8759
▁automation	8761
abba	8765
▁vertebrate	8771
kick	8772
▁marseille	8788
▁faculties	8794
cel	8802
atta	8804
▁pentagon	8808
▁bucharest	8809
isch	8812
process	8819
▁netball	8820
covered	8823
gression	8824
▁unemployed	8828
▁ventilation	8828
▁rotterdam	8829
current	8834
people	8840
▁anatolia	8851
ushi	8861
sail	8866
▁footprint	8867
soluble	8870
width	8870
▁nucleo	8876
▁imminent	8878
staff	8886
▁lorraine	8895
▁vickers	8898
blast	8900
▁honduras	8903
▁adjutant	8909
span	8910
▁fugitive	8914
▁subsidiaries	8915
▁jakarta	8916
four	8921
▁blanche	8924
▁shelby	8925
glio	8943
▁gloucestershire	8950
▁cowboy	8953
▁jasper	8954
▁prasad	8961
▁alternatively	8965
atus	8967
▁redskins	8975
▁hubbard	8977
▁sawmill	8981
▁politi	8984
▁corvette	8988
▁smuggling	8989
▁amenities	8990
▁economies	8990
while	8991
▁aggression	8997
idine	8998
▁maturity	9000
▁terminology	9000
▁masterpiece	9004
▁bibliography	9012
worm	9015
▁clown	9025
▁repression	9027
▁xiv	9034
▁barclay	9035
existent	9038
▁cromwell	9058
▁piedmont	9060
czy	9061
▁karachi	9069
▁discarded	9071
building	9083
▁saxophone	9085
▁lehigh	9089
▁madagascar	9089
china	9090
maid	9097
▁blanket	9099
large	9113
▁dickinson	9114
formed	9118
▁lille	9118
▁rajasthan	9119
style	9137
surface	9149
▁policing	9153
▁genital	9161
mah	9171
▁clarinet	9175
▁gentleman	9175
▁osborne	9186
big	9191
▁damascus	9191
plate	9197
▁frederik	9198
latin	9198
ornitho	9201
god	9206
lix	9208
▁evangelist	9212
dimensional	9217
condition	9229
order	9235
agni	9236
▁ghetto	9241
▁bleeding	9243
▁tulsa	9247
symbio	9248
watch	9248
hei	9252
eaux	9260
▁communism	9264
▁ligand	9267
▁depressed	9269
american	9280
pec	9284
▁babies	9287
szcz	9298
physics	9299
▁irvine	9301
▁bourbon	9306
▁pembroke	9308
▁improvisation	9331
▁endeavor	9335
▁abdomen	9340
ewski	9340
▁guerrero	9341
▁solemn	9342
▁vendors	9344
nuncia	9352
bron	9353
▁confidential	9358
▁contamination	9359
▁brennan	9363
ulu	9368
▁vertex	9368
▁constance	9375
▁buoy	9377
▁bibli	9380
▁wilkinson	9381
▁baxter	9395
▁melodies	9397
▁paradox	9400
▁goaltender	9404
▁uae	9407
▁burkina	9412
▁asphalt	9415
inflammatory	9417
cb	9438
▁paddle	9441
▁sanitation	9442
mother	9444
phosphoryl	9462
earth	9466
traumatic	9468
▁saloon	9470
▁bangalore	9474
▁internship	9482
▁morphology	9483
nucleotide	9483
▁ambrose	9484
▁thanksgiving	9492
▁cinematographer	9499
forward	9502
▁cyrus	9518
▁amplifier	9522
▁iteration	9522
▁claudia	9528
▁curry	9530
bill	9535
▁mosquito	9537
▁wolverhampton	9537
ethanol	9539
▁rfc	9539
gaard	9542
▁satisfaction	9543
▁edison	9549
iron	9550
▁slovene	9554
▁dictatorship	9557
▁quincy	9558
wheel	9560
▁nuclei	9562
▁schwartz	9566
▁berkshire	9570
▁problematic	9575
mechani	9582
▁bathroom	9591
▁cinematography	9594
▁granada	9594
▁academia	9597
▁bologna	9597
▁smartphone	9598
sub	9601
▁walnut	9602
▁oricon	9604
▁savannah	9607
▁bangkok	9608
▁barrister	9612
▁evangel	9613
▁paradigm	9614
▁meanwhile	9615
▁rodgers	9621
▁dictator	9624
▁blossom	9625
nikov	9646
▁lahore	9649
kou	9650
minster	9652
gang	9655
▁emigration	9656
▁freezing	9656
▁instability	9659
▁bronx	9660
hot	9666
▁seventy	9674
▁kickoff	9680
▁parrot	9683
▁mustang	9687
▁attendees	9688
▁shootout	9698
▁pasture	9701
▁eccles	9712
▁liberties	9715
▁sabotage	9718
▁hobby	9723
▁vishnu	9725
ogenesis	9744
▁imagination	9747
▁caucasus	9753
▁malone	9755
lakshmi	9756
ugu	9757
breaker	9760
▁genoa	9760
▁estuary	9761
▁recital	9764
fun	9774
▁realism	9774
▁colombo	9781
▁secession	9786
▁aragon	9788
▁microphone	9790
▁canopy	9793
pain	9793
▁tehsil	9794
▁athenian	9805
▁brittany	9808
▁assemblies	9810
▁osteo	9811
▁longitude	9814
▁skyscraper	9820
blanc	9826
▁occupant	9827
▁remarried	9838
▁prescription	9849
main	9855
▁hobart	9857
▁tipperary	9857
▁squash	9858
▁scheduling	9859
▁chargers	9860
cou	9862
▁shrewsbury	9862
natal	9870
▁chloride	9872
▁sheridan	9872
vell	9873
▁potomac	9875
▁saunders	9875
▁wyatt	9875
▁nassau	9877
lund	9879
semitic	9880
▁turin	9880
▁prosper	9891
▁impaired	9905
▁peterborough	9908
electric	9911
▁inflorescence	9914
▁diaspora	9915
▁stimulus	9920
▁strikeouts	9927
▁mackay	9929
▁physiology	9934
▁macarthur	9945
▁creativity	9955
▁savoy	9955
▁fairfax	9958
▁schooner	9958
▁playground	9970
nh	9976
chemistry	9979
▁botany	9984
liber	9987
loch	9989
loop	9990
▁excursion	9991
▁treason	9992
▁hector	9995
bio	9996
▁perpetrator	10000
▁instagram	10009
▁viaduct	10014
▁fide	10016
▁adjective	10018
▁discretion	10018
▁psychiatrist	10022
▁primate	10023
▁diffusion	10040
▁pueblo	10044
▁monaco	10045
▁instrumentation	10049
wiki	10055
▁taxpayer	10060
▁tribune	10060
▁choreographer	10063
▁viruses	10066
▁addict	10079
▁humber	10088
▁compelling	10096
▁yeshiva	10097
▁gymnast	10099
▁fury	10101
cade	10104
▁priesthood	10109
▁contemporaries	10110
▁flyers	10119
schule	10124
▁draught	10126
pm	10126
▁medina	10137
▁peggy	10153
▁alps	10154
krishna	10159
▁unlawful	10159
▁alumnus	10164
▁monmouth	10178
▁guinness	10179
hydro	10183
mary	10188
▁shankar	10191
pound	10193
▁flashback	10194
gian	10196
▁stuttgart	10204
▁xiii	10205
▁genius	10207
▁philanthropist	10213
present	10214
▁watkins	10216
▁mausoleum	10217
▁kiev	10219
▁caliber	10222
▁libretto	10225
▁crisp	10228
▁hussein	10230
▁utilities	10236
▁biennial	10240
▁grandparents	10249
father	10250
▁allegheny	10254
▁wolverine	10254
▁fishermen	10260
▁laguna	10269
icus	10273
quill	10274
▁dorset	10275
▁criterion	10277
▁sweat	10279
▁dalton	10280
bride	10284
otto	10289
▁cultivar	10291
▁mcmahon	10293
▁kinase	10295
▁antibiotic	10296
▁humboldt	10297
▁crosby	10300
▁literal	10332
▁burlington	10333
▁vocabulary	10333
▁ministries	10345
▁currie	10353
▁homosexuality	10356
▁probation	10356
▁commissar	10368
▁conjecture	10368
▁mitochondrial	10368
▁jupiter	10386
▁tuberculosis	10386
▁centimeters	10391
▁doncaster	10391
▁kyoto	10404
franc	10409
▁dexter	10414
layer	10425
▁gamble	10432
▁tatar	10436
cola	10437
▁flanders	10437
▁lieb	10440
▁cheltenham	10443
cf	10452
▁galle	10453
▁hostilities	10464
▁meridian	10466
▁bce	10470
▁schneider	10471
▁adobe	10484
▁apprenticeship	10484
▁lennon	10485
▁lagos	10487
▁cocaine	10488
▁inactivated	10489
▁preaching	10490
▁deborah	10491
▁domingo	10494
▁maximilian	10498
▁thrash	10501
▁pharmaco	10506
▁fulton	10511
▁telecast	10517
▁oyster	10521
bourg	10523
▁derbyshire	10526
▁plunder	10529
▁wikipedia	10530
▁zhong	10531
system	10532
▁bacon	10541
▁bowie	10541
fm	10542
▁scrub	10542
▁culinary	10545
▁dhaka	10546
▁judaism	10547
▁frustration	10548
▁welterweight	10551
▁ieee	10552
▁rumours	10554
▁janeiro	10561
grade	10564
▁denial	10569
▁iaaf	10569
▁unnecessary	10569
guchi	10581
▁necro	10583
▁wwf	10591
▁syndicate	10595
leaf	10596
▁samsung	10596
sort	10599
▁hague	10606
film	10611
▁kv	10618
▁fertility	10621
▁silesian	10621
▁tandem	10626
▁thornton	10627
▁oxidation	10629
kom	10633
▁tiru	10633
central	10642
▁peach	10654
autobiographical	10658
▁unmarried	10659
▁fowler	10664
▁petals	10664
▁deportation	10666
▁abbreviation	10667
▁hemisphere	10667
▁recycling	10667
▁hancock	10671
▁manipulation	10673
▁initiation	10674
▁unchanged	10676
▁amalgamation	10678
▁citadel	10681
▁inclusive	10683
▁lydia	10685
▁lt	10691
▁foothills	10696
▁skirt	10697
mori	10700
▁emerson	10711
▁zheng	10719
▁refrain	10720
▁konstantin	10722
▁artisan	10723
▁archaic	10728
▁courtesy	10732
race	10734
▁thumb	10737
▁danube	10742
▁oswald	10746
▁sympathy	10746
▁colonization	10748
▁bruins	10753
▁flexibility	10757
▁archival	10758
▁rupert	10763
▁libre	10765
phospho	10765
▁facto	10766
strat	10767
teen	10773
▁acquaintance	10774
connell	10778
▁prejudice	10792
▁pee	10796
kam	10801
▁drowned	10806
entry	10811
▁hydra	10813
▁charities	10814
▁satire	10814
avenger	10818
▁thrive	10818
endorf	10824
▁dignity	10827
▁fischer	10829
▁chung	10833
▁deleted	10836
neck	10836
▁eel	10839
▁substitution	10840
▁omitted	10845
▁aquarium	10849
futur	10854
▁burgess	10859
▁boul	10870
▁alban	10875
▁cheshire	10880
kali	10881
▁flux	10884
▁dinamo	10886
▁rhyme	10888
▁daisy	10891
▁militar	10917
▁approximation	10921
gill	10921
sex	10922
▁weiss	10922
▁mom	10935
▁histories	10941
▁unlimited	10943
▁consulate	10944
▁identities	10945
▁mg	10952
glyph	10953
cycle	10959
military	10960
phobic	10960
▁birk	10969
▁acquitted	10970
▁accountant	10974
▁chestnut	10974
▁tibet	10975
▁proprietor	10979
▁vaughan	10986
dress	11001
▁byrne	11003
▁ransom	11003
▁disappointment	11008
▁newark	11009
▁tehran	11010
▁turnpike	11018
▁affirmed	11024
▁cornelius	11027
▁emanuel	11031
nine	11032
▁jew	11034
▁moisture	11034
▁telecom	11034
▁visibility	11036
▁talbot	11046
▁gull	11057
▁sylvia	11065
▁sutherland	11070
sound	11073
▁chatham	11074
▁wakefield	11076
doctor	11078
▁obsolete	11079
▁corporal	11081
▁duplicate	11083
▁celestial	11086
▁communion	11088
▁climax	11095
▁tomatoes	11095
▁purdue	11097
▁brasil	11103
▁germ	11105
▁marilyn	11106
▁altogether	11107
▁happiness	11107
▁reginald	11120
▁sexuality	11120
toxic	11122
▁merchandise	11125
▁reunite	11126
▁darkness	11128
▁wendy	11129
gou	11137
▁mixtape	11142
▁vicente	11151
▁assemble	11152
▁velvet	11152
▁robbery	11155
▁acronym	11161
▁scripture	11177
ignan	11187
▁techno	11201
spira	11202
virus	11205
▁kilkenny	11213
▁enthusiast	11216
▁refit	11216
boro	11217
▁latvia	11227
▁subscribers	11227
▁browser	11230
▁leopard	11231
bonne	11236
org	11240
patient	11243
▁baghdad	11244
▁chandler	11252
▁armistice	11253
▁baku	11260
▁commemoration	11261
▁rodriguez	11263
▁limerick	11272
▁unopposed	11274
▁subunit	11278
▁buchanan	11282
kol	11282
▁greenland	11284
▁lounge	11284
inter	11285
▁mandarin	11288
▁gravitational	11296
▁forfeit	11299
▁memorandum	11301
kovsky	11310
▁immunity	11313
▁eisenhower	11320
▁prostitution	11321
▁omaha	11323
continent	11328
▁aurora	11335
valent	11335
▁accountability	11342
▁desirable	11347
▁conserved	11351
buck	11352
▁productivity	11354
▁czechoslovak	11357
▁jewelry	11357
▁aisle	11359
anu	11364
▁christie	11366
▁polk	11376
mona	11389
▁juice	11395
▁vhs	11395
▁zambia	11395
▁pizza	11406
▁tyne	11410
▁destined	11415
▁monograph	11415
dun	11417
▁llc	11417
▁stafford	11423
▁fencing	11428
▁predominant	11430
▁provost	11431
▁linguist	11434
▁mistress	11435
▁marijuana	11436
▁disqualified	11441
▁hawthorn	11445
▁tonga	11446
otti	11455
▁analogue	11462
prop	11462
akka	11464
▁jennings	11468
▁suzuki	11468
▁truman	11474
▁charlton	11475
▁gho	11484
cir	11485
▁blunt	11488
▁isotope	11492
▁diabetes	11493
▁ferro	11493
▁mythology	11496
▁arbitration	11502
▁convenience	11507
▁riff	11508
▁taipei	11511
▁higgins	11513
▁symmetry	11513
vest	11513
▁nowadays	11515
▁rutgers	11516
▁dartmouth	11517
▁stairs	11517
▁anthropologist	11521
yeong	11521
▁hogan	11522
▁peck	11535
▁acceleration	11536
▁slovakia	11540
▁engel	11546
▁bavaria	11549
▁cockpit	11550
▁envisioned	11551
▁miranda	11552
▁mafia	11555
▁mercedes	11556
▁elliot	11559
▁kyiv	11566
then	11566
▁precedent	11567
▁campeonato	11568
villa	11571
▁addiction	11576
▁dharma	11576
▁vibration	11578
▁clever	11582
bull	11586
▁lig	11590
▁stade	11591
▁pigment	11597
▁aleksandr	11606
▁insignia	11608
▁anatomy	11617
▁clifton	11622
▁intensified	11623
▁semester	11624
▁voluntarily	11625
bour	11626
▁dresden	11628
eshwar	11628
▁excerpt	11628
▁sinn	11629
▁monsoon	11634
▁emirates	11635
▁nr	11644
▁rotor	11650
▁functionality	11657
▁norris	11665
idge	11666
▁transcript	11667
kra	11672
▁kidnapping	11676
▁kathleen	11678
▁metabolic	11689
▁implicated	11690
▁antioch	11691
▁encyclopedia	11691
▁christchurch	11693
▁destructive	11700
▁semiconductor	11703
▁stevenson	11705
▁brood	11710
related	11714
▁simmons	11716
▁belarus	11726
▁methodology	11726
▁medicinal	11728
▁transparency	11728
▁phillies	11731
▁prosperous	11733
▁cairn	11734
▁glider	11737
▁rouge	11742
▁serpent	11742
▁stigma	11744
▁schwarz	11745
▁kilda	11748
scholastic	11753
▁evolve	11754
▁wharf	11758
▁alderman	11760
olin	11769
▁warships	11773
very	11776
▁edmond	11795
love	11795
gr	11796
▁enclosure	11797
▁galicia	11803
▁fraternity	11811
andra	11812
▁zagreb	11812
▁premise	11816
▁aggregator	11817
enthal	11822
▁coordinating	11823
▁sunderland	11826
▁lafayette	11830
▁spouse	11830
▁accumulation	11831
▁mushroom	11842
▁bulletin	11843
▁sauce	11847
▁pigeon	11855
▁payne	11856
▁lopez	11864
▁chimney	11865
▁harlem	11866
▁lockheed	11867
▁abram	11870
▁farewell	11871
▁connector	11875
khov	11876
▁dismantled	11886
▁bankrupt	11887
▁maltese	11887
moor	11897
▁termination	11898
▁envelope	11902
▁documentaries	11906
▁indirectly	11906
▁cylindrical	11907
▁rink	11910
gau	11911
▁minh	11911
▁aztec	11912
▁daytona	11912
glyc	11917
▁randall	11919
▁pixel	11920
▁benedictine	11922
▁mansfield	11929
▁adolph	11931
▁auspices	11938
▁erupted	11940
▁herzegovina	11940
▁finch	11941
▁middleweight	11941
▁belmont	11945
bau	11946
▁landlord	11947
▁skirmish	11950
dec	11951
▁greyhound	11951
chuk	11953
▁noteworthy	11956
lessness	11958
▁violinist	11958
▁cesar	11960
▁ceylon	11963
▁serra	11963
flower	11967
moral	11967
▁endowed	11969
league	11976
▁hawkins	11977
▁glyco	11985
▁turnover	11988
▁servi	11990
tica	11990
▁superseded	11991
▁engraving	11996
▁degradation	11997
▁waterloo	12004
▁caretaker	12010
▁natalie	12010
▁buch	12018
rino	12018
▁convex	12024
▁inequality	12025
▁stephanie	12026
track	12026
▁wildcard	12026
▁reddish	12028
shoot	12029
title	12038
▁chong	12040
bang	12047
▁laurie	12047
▁energetic	12050
▁gl	12050
kumar	12050
west	12050
▁haw	12052
yuan	12053
▁incredible	12055
▁posthumous	12057
▁macau	12060
▁mcgill	12064
▁disturbed	12069
▁schwe	12071
pac	12081
▁elongated	12083
▁namibia	12086
▁claus	12088
▁reformation	12091
▁rahman	12099
▁overturned	12101
▁cutter	12102
▁detector	12103
▁kinetic	12111
▁illegitimate	12115
▁hartford	12119
▁delicate	12120
▁enthusiasm	12122
▁swami	12126
▁mart	12128
oria	12129
▁rigorous	12132
▁pharmacy	12137
▁laureate	12141
▁mercer	12141
▁nm	12143
▁trek	12146
▁vlad	12146
▁payload	12148
▁scarce	12157
▁hansen	12158
thus	12159
shadow	12161
▁okinawa	12173
▁governorate	12182
wash	12182
▁trojan	12188
▁bho	12189
▁encoding	12191
▁esther	12191
school	12191
▁smuggle	12192
▁thrill	12194
ulla	12195
▁reconciliation	12204
roma	12207
▁hazel	12208
▁venom	12208
▁axle	12211
▁divinity	12216
▁malik	12219
▁perpendicular	12227
▁paradise	12228
▁grassland	12236
▁sampling	12238
▁furious	12242
▁parole	12249
▁toledo	12253
gupta	12255
▁osaka	12255
▁populous	12258
▁vu	12259
▁famine	12261
▁monasteries	12263
shift	12263
▁standings	12276
intercontinental	12277
▁cosmetic	12280
▁undrafted	12284
▁zombie	12285
▁rwanda	12286
▁montenegro	12291
▁abolish	12295
▁deteriorate	12299
▁leningrad	12301
▁classmate	12303
▁syr	12303
▁unfinished	12304
enbach	12307
▁farmland	12312
▁senegal	12312
▁psychedelic	12313
▁tolerate	12317
▁oblique	12320
▁cologne	12321
▁kernel	12322
▁namesake	12322
▁algeria	12327
▁antwerp	12327
▁porsche	12328
connor	12336
glass	12341
gb	12347
▁enrique	12352
▁zor	12353
▁colle	12354
▁segregation	12358
▁chamberlain	12360
▁galway	12360
▁coconut	12362
iform	12370
▁sandwich	12371
forming	12375
▁torque	12376
▁rut	12377
▁swansea	12380
▁wildcats	12386
▁sicily	12389
eater	12393
▁wavelength	12393
ganj	12395
▁cnn	12397
▁coffin	12402
▁frederic	12407
chenko	12412
▁pronunciation	12412
▁salisbury	12412
vita	12413
▁neurons	12414
▁unstable	12414
oku	12415
▁slug	12415
▁maggie	12417
▁curtain	12419
▁stranger	12422
▁garrett	12429
▁conceded	12433
▁prostitute	12436
▁gasoline	12439
▁commemorating	12441
▁schmidt	12453
▁surreal	12457
▁petit	12458
▁archipelago	12463
▁furnace	12466
▁preacher	12466
cula	12468
osphere	12469
▁flotilla	12476
▁prestige	12480
▁rockefeller	12480
▁unbeaten	12481
▁hoop	12489
▁parasite	12492
▁crimson	12493
▁kolkata	12497
▁equestrian	12506
▁camden	12511
▁hyderabad	12511
▁vila	12511
▁evoke	12515
▁spherical	12516
▁interconnect	12518
▁gai	12525
wel	12526
▁resonance	12529
▁litigation	12536
frame	12539
evsky	12540
▁nicaragua	12542
▁forever	12544
▁compiling	12552
▁fig	12552
▁erotic	12579
▁clutch	12585
▁faint	12586
▁overview	12588
▁precinct	12588
trick	12593
▁slab	12601
▁perimeter	12602
▁compartment	12603
▁subgroup	12610
titled	12611
▁smile	12616
stick	12616
▁barker	12619
▁disruption	12619
▁assurance	12624
▁mott	12625
hedra	12626
▁madame	12629
▁brewing	12631
skoye	12636
circle	12637
▁reinstated	12637
▁magnificent	12651
▁regina	12654
▁seymour	12654
gil	12657
tant	12669
▁categorized	12671
▁zinc	12675
▁doyle	12676
▁sewer	12678
▁siva	12680
▁chairperson	12682
▁slovenia	12688
▁transcend	12699
▁vassal	12704
▁intermittent	12705
▁packers	12709
▁bargain	12712
▁implant	12720
▁bermuda	12721
kirk	12723
appropriate	12724
▁cerebral	12724
▁sporadic	12725
▁onwards	12729
▁relocate	12733
▁ambient	12734
▁offspring	12737
mr	12740
▁compelled	12743
▁garment	12743
▁lottery	12744
▁vag	12744
▁hira	12746
▁coastline	12747
▁packaging	12747
▁soprano	12747
▁gould	12749
▁evelyn	12751
▁gwen	12753
▁lattice	12760
▁restructuring	12772
amma	12775
rier	12775
▁caledonia	12777
loom	12777
▁dover	12783
▁treaties	12791
▁grenade	12806
sboro	12807
▁teresa	12811
▁prosperity	12815
▁anxiety	12818
▁rainforest	12818
kho	12823
▁rhodesia	12828
▁deliberate	12835
▁bihar	12840
▁brac	12843
▁liturgical	12848
tim	12848
breaking	12851
▁vernacular	12857
▁lantern	12858
▁marxist	12860
▁disabilities	12861
▁mgm	12864
▁confiscated	12866
▁junk	12875
▁olivier	12876
▁neolithic	12877
fly	12882
oscopic	12886
▁stereotype	12887
▁sindh	12903
▁fibre	12907
gluco	12912
▁sergei	12912
▁walton	12912
▁banana	12915
▁necessitat	12917
▁morphological	12921
▁gentle	12924
▁myself	12924
▁salvation	12924
▁compliment	12929
▁affinity	12930
▁organist	12931
▁stylistic	12931
stat	12932
▁bahrain	12935
▁discoveries	12936
▁deluxe	12941
▁tattoo	12941
▁libertarian	12948
▁mead	12952
rigg	12952
east	12953
▁narayan	12953
▁consulted	12962
▁kidnap	12965
ops	12967
▁disastrous	12974
▁fungus	12976
▁evergreen	12977
terdisciplinary	12979
▁activism	12982
▁enslaved	12982
bula	12983
▁assured	12984
▁essence	12984
operative	12990
▁lagoon	12991
district	12993
▁taxation	12993
lion	12994
chal	12997
haven	13000
▁intercollegiate	13001
▁bamboo	13003
▁busch	13003
▁homolog	13006
▁peculiar	13013
odont	13015
▁grange	13023
▁bollywood	13026
▁irene	13033
virtu	13033
▁brotherhood	13036
▁cameroon	13039
▁calcutta	13040
▁illusion	13043
▁traction	13043
ggle	13044
▁roadway	13044
polar	13051
▁minneapolis	13056
▁susceptible	13056
▁collaborating	13058
kova	13058
▁beloved	13060
ango	13061
▁wembley	13061
▁sustainability	13065
▁stomach	13066
▁equilibrium	13069
author	13072
▁crook	13073
▁tuition	13081
▁reliability	13082
▁physiological	13083
▁escaping	13085
▁tottenham	13093
▁biodiversity	13095
▁gesture	13098
text	13099
▁racist	13102
▁neutron	13105
▁vigil	13107
centric	13109
▁wheeler	13109
▁venus	13110
▁apostle	13111
▁madhya	13111
▁paolo	13111
▁barrow	13113
▁centenary	13117
▁lisbon	13117
▁tavern	13117
▁friction	13120
linear	13120
▁deadline	13123
▁possibilities	13125
▁vigorous	13125
▁wanderers	13125
▁bunker	13129
▁ethiopia	13133
▁routing	13137
▁nathaniel	13138
▁stag	13142
▁loving	13143
strom	13151
▁adjunct	13161
▁rhino	13165
▁batman	13170
▁archibald	13174
person	13177
▁appropriation	13181
owitz	13181
▁romanesque	13182
came	13185
▁luigi	13195
▁desktop	13196
▁workforce	13201
▁fleming	13203
▁genocide	13203
▁swallow	13203
▁restriction	13205
▁capsule	13209
▁liquor	13216
▁pietro	13216
rib	13219
▁waterway	13219
▁olivia	13222
cp	13223
▁saturn	13223
stream	13224
case	13231
▁helsinki	13232
▁steelers	13234
▁sulfur	13234
▁tractor	13249
▁endorsement	13253
▁trilogy	13262
▁invade	13268
▁moldova	13270
▁regulator	13274
▁sleeve	13275
▁oct	13278
bun	13288
▁censorship	13288
▁inflation	13293
▁discontinu	13295
▁plaintiff	13295
gall	13297
▁smithsonian	13297
typical	13301
▁birch	13304
▁crazy	13307
▁gat	13307
▁umpire	13308
▁weber	13309
▁budapest	13310
▁urgent	13310
▁convened	13315
▁fluent	13321
▁invalid	13321
ddington	13323
▁wisdom	13327
▁castell	13332
▁engraved	13333
▁greenwich	13337
▁teatro	13343
▁candle	13347
▁eurasia	13349
▁milestone	13354
▁apache	13355
▁hodge	13357
▁inspire	13358
kot	13358
▁hubert	13361
▁fitzgerald	13362
▁niagara	13366
▁werner	13368
▁necessity	13372
▁judy	13373
economic	13376
zine	13381
▁technician	13389
▁registry	13394
▁vanderbilt	13396
▁profitable	13403
▁britt	13406
▁accusing	13407
▁spoil	13419
gol	13421
giri	13429
▁meditation	13431
▁karnataka	13433
▁hammond	13436
▁burrow	13445
▁peterson	13447
cam	13451
▁hanover	13453
▁abbott	13457
▁appalachian	13458
▁sunshine	13458
▁transparent	13464
▁landslide	13474
▁baptism	13475
▁estonia	13475
▁workplace	13478
▁colonists	13482
mobil	13484
▁elegant	13488
urban	13488
▁diagonal	13495
will	13503
▁ladder	13505
▁yong	13510
▁melodic	13516
▁reggae	13519
▁surveyor	13523
writing	13526
mari	13529
▁viceroy	13529
▁apparatus	13531
range	13531
▁simultaneous	13531
tani	13534
▁yen	13536
aq	13538
▁consolidation	13538
dah	13538
▁eligibility	13543
▁recreate	13543
fusion	13547
donnell	13558
▁flour	13564
▁kaiser	13565
kun	13567
▁prevalence	13567
▁nagar	13573
▁copied	13574
▁endurance	13574
cule	13576
▁kip	13586
▁throat	13590
▁reputed	13591
treat	13591
gren	13599
▁laurence	13600
▁mutation	13602
▁needle	13602
grant	13603
slav	13610
player	13613
▁troupe	13616
▁dictate	13617
▁pediatric	13617
▁scratch	13619
▁rau	13620
▁tailor	13622
▁supermarket	13623
▁universidad	13625
▁submerged	13626
▁dishes	13627
▁basti	13630
▁clifford	13632
▁chronological	13634
▁bounce	13635
▁nonetheless	13639
▁guess	13641
▁hari	13649
▁adolescent	13651
scape	13653
▁propulsion	13655
written	13655
▁incidence	13656
▁assassinated	13657
spiration	13658
▁bestowed	13659
▁cosmic	13662
▁covenant	13667
▁tolerance	13667
▁unused	13676
▁advocating	13678
▁macedonia	13686
rot	13687
▁purported	13688
▁chennai	13691
shah	13692
▁lionel	13697
▁arches	13699
▁elliptic	13704
force	13704
▁stirling	13709
▁rejoin	13717
▁absorption	13719
▁ditch	13722
▁scull	13724
▁unification	13726
▁relinquish	13731
▁illustrator	13742
mt	13746
mart	13750
▁taluk	13750
▁canonical	13753
▁likelihood	13754
▁racecourse	13756
▁boulder	13757
▁parsons	13757
▁immortal	13761
▁benson	13762
▁veto	13762
▁bluff	13763
▁confident	13763
▁spanned	13765
▁mish	13776
▁turf	13776
▁sunset	13777
hoo	13779
▁ostr	13780
▁nrl	13782
▁patterson	13782
▁indefinite	13792
gul	13793
▁jill	13793
vice	13798
▁medley	13807
▁spectral	13813
▁torch	13817
▁tudor	13820
horse	13822
▁meteorological	13823
tner	13823
▁beatles	13827
hay	13830
▁hierarchy	13831
▁stronghold	13831
▁expulsion	13834
▁babylon	13836
clair	13838
▁ether	13840
▁minorities	13843
▁judith	13844
▁regency	13845
▁sele	13845
▁assyrian	13848
▁annexation	13850
▁segunda	13858
generation	13860
▁madonna	13866
▁mitch	13879
▁jel	13888
▁brooke	13894
▁monopoly	13897
▁carlisle	13898
▁piston	13903
▁analyses	13905
▁dolphins	13912
▁roche	13917
▁bloc	13918
▁premature	13918
▁buffer	13919
▁astronomy	13920
▁normandy	13923
▁gloss	13924
▁concurrently	13926
▁hastings	13929
▁vega	13929
▁legislator	13932
fla	13934
▁wicket	13936
▁barge	13941
▁myanmar	13941
pathic	13943
▁diagram	13963
▁logging	13963
▁theologian	13965
▁exclude	13966
oud	13971
▁cannabis	13972
▁unconscious	13973
▁maharashtra	13974
▁arguably	13978
hunt	13979
▁loft	13980
▁foremost	13988
▁gazette	13989
gina	13995
▁exciting	13998
▁beef	13999
▁inauguration	14000
opha	14002
▁hp	14007
▁swi	14007
▁installment	14011
▁philipp	14012
▁nursery	14015
phosphate	14020
flat	14022
▁applicable	14026
▁judo	14026
▁refined	14028
▁rendition	14030
plant	14038
▁densely	14043
▁hippo	14048
▁taliban	14055
▁ignore	14057
▁boyfriend	14066
with	14077
▁arlington	14084
classic	14084
▁admired	14086
▁committing	14086
ovsk	14086
▁exemption	14092
▁phylogenetic	14093
▁frei	14094
▁saddle	14097
▁signaling	14097
▁shannon	14099
▁horace	14102
▁niece	14106
▁barrett	14108
▁disappearance	14108
▁narrated	14108
▁frustrated	14110
blo	14120
▁rehearsal	14123
▁besieged	14125
▁peel	14128
▁unhappy	14129
▁cunningham	14133
▁leinster	14141
▁whig	14141
▁nationality	14143
▁messenger	14144
umba	14147
▁hoffman	14148
hum	14149
▁stalk	14149
▁colo	14154
▁cake	14156
▁unfortunately	14161
▁clue	14163
▁rematch	14165
▁inherit	14166
▁mccarthy	14171
▁discrete	14174
▁funny	14175
▁catalyst	14176
▁gland	14181
▁berk	14184
fjord	14191
▁waterfall	14192
▁colloquial	14194
▁chak	14197
writer	14197
▁elvis	14198
▁picnic	14199
▁expired	14203
▁angular	14208
▁harassment	14208
▁sophia	14213
▁extinction	14214
▁czechoslovakia	14215
▁crescent	14219
▁ft	14223
▁randolph	14229
▁pearson	14231
▁hiking	14234
heart	14245
▁chemist	14246
▁beverage	14248
suke	14248
▁staircase	14251
▁seizure	14253
▁merri	14257
▁pbs	14260
▁buddy	14272
witz	14278
pg	14289
▁proprietary	14291
chet	14293
▁violet	14293
▁crawl	14295
▁excited	14301
▁bryant	14307
▁obliged	14308
▁adjustment	14309
▁dawson	14309
▁flute	14313
▁leipzig	14324
▁dion	14327
▁mash	14329
▁discourse	14333
▁grind	14336
▁null	14339
▁scroll	14340
▁tug	14341
▁clayton	14343
resistant	14343
▁wolves	14346
▁entirety	14350
▁compose	14354
▁residue	14358
▁spectators	14361
▁midwest	14364
▁vandal	14364
▁pasha	14368
opter	14370
stroke	14375
▁ceded	14376
physical	14379
▁taxonomy	14379
▁charleston	14384
kowski	14384
▁slender	14384
▁longitudinal	14385
▁thom	14388
lake	14392
▁censor	14399
▁sz	14401
▁christina	14405
▁ecology	14405
▁luna	14406
▁caucus	14411
▁extraction	14416
▁relocation	14424
▁mackenzie	14431
▁disappointed	14434
▁liability	14435
▁tremendous	14439
▁moto	14446
peptide	14455
▁confirmation	14459
▁humphrey	14459
▁wolfgang	14464
▁burma	14465
▁tyre	14467
▁masculine	14481
▁tributaries	14487
▁miz	14491
▁gradient	14492
guin	14493
▁panzer	14493
▁demise	14495
▁weakness	14495
▁tanzania	14500
▁accession	14501
▁uncertainty	14503
▁uncovered	14508
▁reprinted	14509
kit	14510
paid	14520
puram	14522
▁postwar	14523
▁oversight	14532
▁diocesan	14536
▁proto	14544
▁symbolize	14546
▁deported	14549
▁xvi	14551
bate	14554
hoff	14556
▁entrusted	14558
▁blessing	14560
▁nj	14560
step	14561
▁plug	14562
▁carving	14564
▁folklore	14566
▁nineteen	14567
metre	14570
▁vitamin	14572
▁sneak	14576
visible	14576
▁solitary	14580
▁imprint	14581
screen	14584
▁apex	14587
quo	14587
▁winchester	14594
▁investor	14601
▁anthropology	14603
▁clashes	14605
▁yoga	14607
▁bilingual	14616
▁disappointing	14617
▁koch	14617
▁loyalist	14618
rub	14631
▁tragedy	14631
▁thickness	14639
▁dispatch	14643
▁chevrolet	14646
stow	14651
▁rhetoric	14652
▁influx	14655
▁sinclair	14656
▁skater	14660
▁calder	14662
▁jules	14665
▁sermon	14672
▁vintage	14672
volu	14674
▁fernand	14679
fuel	14684
▁clone	14685
▁solicitor	14691
▁siding	14693
▁transverse	14700
▁ratified	14703
▁tariff	14704
▁suffolk	14711
escence	14717
▁molecule	14721
▁preseason	14726
▁softball	14728
▁jaguar	14731
▁harriet	14737
▁greenhouse	14739
▁tay	14741
▁dynamo	14746
▁exclusion	14746
▁racism	14749
▁devastating	14750
▁presiding	14751
▁semantic	14755
▁tweet	14757
▁tak	14760
▁palla	14761
▁syllable	14761
▁wigan	14762
▁dispersed	14763
▁prescribed	14765
▁gloucester	14766
▁chor	14770
▁solved	14772
asser	14777
gp	14777
▁outreach	14779
kir	14780
▁botanist	14783
▁thoroughbred	14783
xia	14784
pati	14785
▁survivor	14786
▁providence	14788
▁trout	14791
▁bam	14795
▁paralympics	14795
▁probable	14795
▁composing	14796
▁fuselage	14802
▁forgotten	14807
▁cuisine	14809
▁friar	14813
▁fungi	14813
▁grill	14816
▁aluminium	14818
▁discourage	14818
▁beacon	14822
▁canberra	14825
▁ballots	14826
▁weaver	14830
▁hormone	14831
▁airways	14836
▁ipswich	14837
▁consume	14841
▁calculate	14843
▁albion	14844
▁amusement	14845
▁reorganization	14845
▁kerr	14851
▁overhaul	14856
▁fru	14863
▁magdalen	14864
▁nightclub	14866
asso	14867
▁dissent	14868
▁correctly	14878
tuck	14879
▁solving	14880
▁skeptic	14883
▁sofia	14884
▁multimedia	14898
▁swap	14904
▁devastated	14905
▁campuses	14907
▁aviv	14909
hopper	14917
▁prote	14917
ocyte	14918
▁tapp	14920
▁pardon	14921
▁carlton	14925
▁urging	14925
▁verdict	14927
▁inheritance	14929
▁naples	14931
▁plaster	14931
▁ruby	14933
▁incorporation	14938
▁attested	14939
▁candidacy	14942
▁middlesex	14942
▁dull	14944
▁invasive	14946
▁envoy	14957
▁darren	14959
▁victorious	14959
▁posit	14961
▁cairo	14962
▁embark	14964
▁neighbour	14965
▁summarize	14967
▁cigarette	14972
carbon	14980
▁glacial	14980
plex	14981
▁panchayat	14983
▁webster	14988
▁ricardo	14990
▁advertised	14994
▁pamphlet	14994
neu	14995
▁uranium	15005
▁grocery	15006
▁louisville	15007
▁siberia	15011
uel	15011
▁bois	15013
▁magnus	15018
▁void	15034
pad	15039
kur	15040
term	15050
▁fortifications	15051
▁sioux	15063
aru	15064
▁lindsay	15072
▁levy	15076
▁rita	15082
▁thro	15084
▁dundee	15087
lib	15087
▁alba	15097
▁autobiography	15101
▁lub	15106
▁judiciary	15107
▁propeller	15107
▁reinforce	15110
▁generous	15111
did	15116
▁angola	15118
elected	15127
▁granddaughter	15143
▁renault	15149
▁och	15150
▁decreasing	15151
▁davidson	15154
▁coronavirus	15157
▁jacksonville	15158
qa	15165
user	15169
▁gamma	15172
rank	15172
▁terrible	15177
▁undergone	15177
▁reassigned	15178
▁riley	15178
▁outrage	15180
▁biographer	15195
▁lima	15196
▁amber	15199
▁garner	15201
peak	15207
▁pathogen	15208
▁simplified	15209
▁ancestry	15217
▁peripheral	15220
▁niche	15221
▁auburn	15226
▁infectious	15227
▁whistle	15228
dance	15229
▁ligue	15239
▁gaul	15240
▁jealous	15241
▁commemorative	15243
▁vista	15250
▁cull	15255
▁soloist	15257
▁complain	15258
foot	15264
▁unwilling	15264
▁cheat	15266
▁realised	15269
▁phantom	15270
▁convincing	15272
▁plenty	15273
▁cypriot	15274
▁mla	15274
▁resembling	15275
▁equator	15278
▁announcer	15285
▁lund	15290
▁nile	15291
cross	15298
▁transplant	15300
ckle	15302
▁jerome	15306
▁desk	15307
▁heroic	15307
disc	15309
jet	15309
metric	15309
▁biographical	15310
▁robotic	15311
▁undisclosed	15313
▁pile	15316
nus	15322
▁carpet	15324
▁arbitrary	15327
▁directive	15327
▁isabella	15329
▁convict	15331
▁rejection	15331
bet	15334
▁wrap	15335
▁digest	15339
▁mole	15339
▁battlefield	15341
▁continually	15343
▁gum	15343
lium	15345
▁packet	15349
▁takeover	15349
▁goat	15350
▁constantinople	15353
▁stabilize	15355
▁shipbuilding	15358
▁prosecute	15363
▁demographic	15364
▁miniseries	15364
▁specify	15364
▁bundesliga	15368
▁blackburn	15373
▁repaired	15383
▁vacancy	15383
fight	15385
▁agenda	15386
▁kannada	15386
continu	15387
▁metaphor	15392
▁amalgamated	15393
therapy	15396
▁toilet	15404
▁slovenian	15405
▁huang	15406
▁printer	15406
▁diane	15407
▁chancel	15408
connect	15410
▁secretariat	15410
▁suspicious	15413
teau	15416
▁trolley	15417
▁geology	15422
▁basically	15424
▁caliph	15426
▁suppression	15429
jay	15430
▁distress	15432
▁utilizing	15436
▁filip	15437
pf	15437
▁cyclo	15441
▁librarian	15441
iba	15445
tty	15454
▁merging	15456
zone	15457
▁lambert	15458
▁precious	15459
▁habsburg	15467
corp	15469
▁spectacular	15470
▁thal	15470
▁tucker	15472
▁vineyard	15473
▁resemblance	15475
▁garcia	15476
▁elena	15481
▁continuity	15483
gur	15487
▁carson	15489
▁spontaneous	15489
▁gdp	15495
▁vend	15495
▁bulldogs	15498
developed	15499
▁dunn	15500
▁passionate	15500
▁cassette	15509
▁broncos	15511
▁chill	15511
inae	15513
page	15513
▁sketches	15521
▁penetrate	15523
▁franciscan	15536
▁imam	15537
▁infrared	15539
▁beast	15543
▁atoms	15545
▁mickey	15550
▁hardcore	15552
▁pratt	15552
▁enlist	15563
▁dioxide	15564
▁patronage	15566
▁clearance	15576
▁doom	15577
ullah	15577
▁texture	15581
▁dismissal	15586
▁salvage	15588
▁collar	15591
▁surplus	15593
▁proclamation	15595
▁epidemic	15600
give	15601
▁caution	15604
▁eden	15609
▁jenny	15611
▁separating	15611
▁marx	15613
▁laboratories	15616
▁empirical	15617
▁scarlet	15618
▁arbor	15621
▁firearms	15623
▁fertile	15631
▁nutrient	15634
▁georgi	15636
▁convenient	15638
rud	15639
▁wholesale	15647
▁sigma	15648
▁steward	15650
▁reconcile	15652
▁courtyard	15653
▁scrapped	15654
▁approve	15658
▁newcomer	15661
▁slu	15663
pack	15665
▁localities	15667
▁gradual	15668
▁drought	15671
▁hiatus	15671
▁carey	15673
▁brod	15675
▁songwriting	15675
▁batsman	15676
▁bmw	15677
▁dried	15679
▁matsu	15682
▁basel	15684
▁unreleased	15685
fen	15686
▁ronnie	15687
rgic	15689
▁specializes	15690
▁gou	15692
icide	15693
▁sparta	15693
▁fool	15694
▁repertoire	15695
▁satirical	15698
▁livingston	15699
about	15700
▁prussia	15706
▁chop	15709
meric	15710
▁coventry	15711
illustr	15716
hik	15719
▁monica	15729
▁terrorism	15729
▁gaza	15735
▁pow	15746
▁brady	15749
▁willow	15750
▁solidarity	15759
▁kul	15760
▁worried	15769
▁mice	15771
▁exert	15773
▁geometry	15773
▁dividing	15774
real	15774
▁expenditure	15775
▁enroll	15777
ull	15786
opus	15787
▁carmel	15789
▁implications	15791
hiro	15792
scot	15794
▁seoul	15794
tral	15796
assa	15810
▁screenwriter	15815
▁travis	15824
▁kuala	15827
▁restoring	15827
▁append	15831
▁inadequate	15833
▁examining	15838
▁scouting	15838
▁knot	15840
▁tw	15841
▁exploitation	15842
▁successes	15846
▁veterinary	15850
▁explode	15854
▁eccentric	15859
▁mcdonald	15859
▁casual	15860
▁precisely	15866
▁ef	15871
▁kazakhstan	15872
▁lizard	15872
▁valle	15877
▁fauna	15879
▁antagonist	15883
▁hydroelectric	15883
▁apologize	15885
graf	15890
▁masses	15892
▁fletcher	15893
▁dwight	15902
▁annex	15908
▁gloria	15911
▁jenkins	15911
pit	15912
▁orchid	15916
▁liaison	15922
▁bedroom	15924
▁lobe	15925
▁chapman	15927
▁edith	15927
▁istanbul	15928
▁bergen	15930
▁edit	15933
tung	15933
▁recruitment	15938
▁initiate	15941
▁mandated	15951
▁observing	15951
▁dudley	15953
▁cannes	15954
▁leone	15957
▁inspect	15961
▁ordnance	15961
▁wade	15975
tr	15977
▁wyoming	15983
▁birthplace	15987
▁norse	15989
▁lacrosse	15993
▁spray	15997
famous	15998
omer	16005
▁gibraltar	16006
▁spice	16010
▁sink	16012
▁tracy	16018
▁corpus	16019
▁bacterial	16024
elo	16024
lv	16028
▁snail	16033
▁mormon	16035
▁amnesty	16047
▁viktor	16047
▁sterling	16052
▁groove	16059
▁rhy	16060
▁countryside	16062
lp	16065
phan	16067
▁quinn	16067
▁compute	16068
quan	16068
▁dixon	16070
wc	16070
▁allegiance	16079
▁pilgrim	16084
▁zhao	16084
oslav	16088
▁nadu	16089
▁pip	16089
ugh	16091
▁bracket	16092
▁stiff	16093
▁jaya	16095
▁collaborate	16096
▁aforementioned	16101
▁chaos	16103
▁kurdish	16105
▁debris	16108
▁unprecedented	16110
▁kana	16112
edge	16113
▁orient	16114
cru	16119
▁expo	16120
▁screw	16122
miss	16123
▁progression	16123
riya	16128
▁focal	16138
▁nicole	16142
▁mayoral	16145
▁watt	16149
▁frequencies	16157
▁fritz	16159
▁petty	16160
▁astronaut	16161
scale	16161
inus	16168
▁temperate	16168
▁fumble	16171
▁accreditation	16179
▁salem	16181
▁listeners	16185
▁poker	16186
▁eager	16187
▁wives	16188
▁eternal	16192
▁constable	16197
▁woo	16200
lord	16202
▁overnight	16205
▁slim	16217
▁bowler	16221
▁rumors	16226
▁monarchy	16232
aleks	16234
▁sunny	16235
▁orchard	16237
▁denounced	16239
▁disturbance	16241
ody	16241
hausen	16244
▁marty	16244
▁kab	16246
hm	16247
▁replied	16250
▁parkway	16251
▁replay	16251
▁dubai	16256
▁afraid	16257
▁charging	16259
▁kuwait	16260
mol	16263
▁miracle	16269
▁pirate	16276
▁hom	16277
icia	16279
▁gardner	16281
▁recapture	16281
▁sympathetic	16284
▁directorate	16293
▁roc	16294
▁execute	16295
▁mammals	16295
▁elisabeth	16297
recht	16299
▁umbrella	16301
▁rac	16304
▁coleman	16305
rp	16305
nah	16306
▁pear	16307
▁incarnation	16308
▁sparse	16310
▁crab	16311
▁economically	16312
▁beneficial	16320
tino	16321
▁quarterfinals	16323
▁refuse	16323
▁burmese	16324
▁shirley	16324
▁seize	16328
▁joyce	16331
toria	16335
fund	16336
▁mercy	16344
quir	16344
▁beverly	16346
▁hbo	16348
hui	16351
otte	16352
▁erosion	16353
▁preview	16357
▁recognizing	16359
▁ideology	16361
▁nw	16367
dham	16369
▁overtime	16370
▁pike	16373
▁sali	16373
▁personalities	16374
▁expose	16386
▁remarks	16386
▁porto	16390
▁scream	16393
▁deacon	16396
▁airplay	16401
▁carnival	16406
▁pomp	16417
▁wrapped	16421
▁knife	16426
▁pp	16433
▁belarusian	16434
▁fern	16434
▁sacramento	16437
cr	16440
▁imagery	16440
▁auditorium	16451
▁newscast	16454
▁preserving	16454
hom	16456
▁brace	16460
▁keeper	16465
▁render	16466
nom	16472
▁hunger	16475
▁mobility	16475
▁podium	16478
▁parcel	16479
achi	16482
poli	16494
▁lymph	16498
▁springfield	16499
▁fresco	16500
▁subtle	16502
pathy	16503
▁nucleus	16506
▁islander	16507
▁superhero	16512
▁delight	16524
▁dominic	16524
▁temporal	16527
▁cw	16528
▁crossover	16534
▁exeter	16539
▁impose	16539
▁educate	16547
▁xavier	16554
▁vacated	16574
▁compression	16578
root	16596
▁appreciation	16603
▁tidal	16606
▁sutton	16608
▁nobility	16621
▁corona	16624
▁moroccan	16624
▁admiralty	16625
▁prolonged	16627
▁fcc	16632
▁wax	16633
logue	16637
▁beaches	16638
▁feminine	16639
▁tenor	16647
▁exotic	16652
▁amanda	16653
▁renewal	16654
▁amphibious	16661
▁restart	16662
▁halted	16664
emi	16671
▁quaker	16676
▁dodgers	16679
hur	16681
▁exempt	16682
▁wit	16693
▁hiring	16696
▁kindergarten	16696
▁wheelchair	16696
▁airplane	16702
▁inception	16713
▁treatise	16714
▁kot	16715
anne	16716
▁interrupt	16716
▁attach	16719
excluding	16719
▁lorenzo	16719
tura	16721
▁implied	16722
stage	16723
▁inmates	16731
chang	16735
▁culminating	16735
▁traits	16740
▁constantine	16743
▁traders	16744
▁donna	16745
rou	16745
▁lombard	16747
▁mutant	16748
▁hereditary	16750
▁sensation	16754
▁spartan	16755
etto	16757
▁homosexual	16757
▁irving	16757
▁morocco	16761
▁inhibitor	16769
market	16769
▁tragic	16769
▁basilica	16774
▁vacation	16777
▁deserve	16778
▁linebacker	16778
▁bred	16779
▁unionist	16781
haus	16783
ische	16783
▁concurrent	16786
▁blank	16787
▁embryo	16788
human	16789
▁yemen	16789
baum	16798
▁precision	16805
▁cleric	16807
▁laurel	16808
▁buddhism	16809
ubi	16810
▁intercepted	16813
▁therapeutic	16818
▁constellation	16826
rom	16836
▁cbc	16837
bou	16840
▁harmonic	16843
▁sant	16844
▁wc	16845
▁turnout	16847
▁disposal	16850
▁tipp	16851
▁prefect	16852
▁ferrari	16855
▁latitude	16857
▁pronoun	16862
function	16863
▁bilateral	16864
▁crude	16867
▁flavor	16869
▁nitrogen	16877
▁alfonso	16879
fit	16880
▁shooter	16880
oko	16881
▁loot	16884
▁boyd	16887
▁hindwings	16891
egan	16894
▁ideological	16901
▁buzz	16911
▁gunner	16914
▁modify	16915
▁alternating	16920
▁freeman	16923
grass	16924
▁holt	16929
▁devised	16930
▁pregnancy	16932
▁consort	16936
gest	16936
▁aluminum	16938
▁sect	16939
▁vasil	16940
▁novo	16942
▁recipe	16948
▁monastic	16955
▁sixty	16955
▁helena	16956
▁careful	16958
▁ucla	16961
▁expectations	16962
▁thirteenth	16962
▁discount	16968
▁emmanuel	16969
▁malayalam	16972
asia	16981
▁minimize	16982
bir	16989
mala	16991
▁polling	16993
▁reverted	16997
▁cyril	16999
symmetr	17002
election	17006
▁supernatural	17006
▁dominance	17013
▁holly	17013
▁persistent	17013
▁armour	17020
▁manning	17023
▁syracuse	17024
▁humorous	17035
▁kemp	17035
▁polynomial	17040
▁mosaic	17051
▁dramatically	17055
ienne	17055
▁acceptable	17056
nai	17060
▁itunes	17067
▁zach	17068
▁ordinance	17073
▁gol	17075
▁skate	17082
▁keel	17084
▁platoon	17085
▁feudal	17087
▁eruption	17091
▁alto	17094
color	17094
▁grip	17096
▁redevelopment	17101
▁practise	17114
▁affection	17115
▁simulate	17118
▁valeri	17120
▁albania	17121
▁contender	17124
▁anthropo	17126
▁zar	17126
ghi	17127
▁homestead	17132
▁cancellation	17134
▁morton	17134
vara	17136
▁presumed	17139
▁omar	17146
▁gymnastics	17151
grav	17153
▁ferguson	17160
▁inventory	17160
▁postseason	17162
▁attractions	17164
dice	17164
cuba	17166
▁mohamed	17173
▁paraguay	17174
▁darwin	17181
▁tongue	17181
▁finishes	17182
▁mori	17182
course	17187
▁immuno	17187
ppe	17191
igne	17192
▁attachment	17203
▁flesh	17203
▁panthers	17204
▁mimic	17206
▁shout	17207
agne	17210
▁depict	17215
▁floyd	17219
▁motive	17220
▁flori	17228
▁pilgrimage	17229
▁emir	17234
igo	17237
etz	17243
▁nielsen	17243
▁enthusiastic	17247
▁maxwell	17255
dog	17256
alo	17257
▁valencia	17259
▁allocation	17260
▁cobb	17261
▁gregor	17265
▁kle	17266
▁liv	17268
▁govern	17269
▁norton	17270
▁robust	17270
▁phenomena	17273
▁ll	17279
▁wonderful	17279
vision	17284
▁cyclist	17286
▁flint	17288
hib	17290
▁clarence	17292
udge	17292
▁rigid	17298
▁alexandria	17299
▁philharmonic	17304
▁mourn	17307
▁seller	17310
▁fundraising	17314
▁disorders	17316
▁jain	17316
▁northampton	17316
▁likewise	17317
▁rhythmic	17318
▁eject	17320
▁wimbledon	17330
▁rt	17331
▁semifinal	17332
▁immigrated	17346
crypt	17352
▁epithet	17352
▁outlet	17355
vr	17355
▁homage	17357
▁safely	17360
▁fisheries	17362
▁taiwanese	17364
▁flemish	17367
▁kand	17369
▁linux	17369
▁roe	17369
nock	17373
▁tramway	17373
chem	17378
▁probe	17383
▁heavier	17384
▁coronation	17400
▁netflix	17403
▁chocolate	17404
▁reproduction	17410
▁dinosaur	17412
▁disappear	17415
live	17419
witt	17421
imp	17422
▁gubernatorial	17426
▁psychologist	17429
▁hectares	17430
▁sib	17430
▁concluding	17436
▁bombay	17439
clav	17441
▁pd	17443
▁reagan	17446
▁iceland	17452
▁intact	17453
▁jacket	17454
▁terminate	17454
ulo	17454
▁satisfied	17456
▁uncommon	17460
▁norwich	17470
▁cubic	17471
▁elevator	17474
▁rochester	17476
▁sophie	17476
▁knox	17477
▁gerard	17479
▁underneath	17481
▁fever	17482
▁tuesday	17482
▁rin	17487
▁servants	17488
max	17491
▁helmet	17495
▁compass	17499
▁affordable	17500
▁correlation	17500
locating	17501
▁cooperate	17511
▁nail	17513
▁integer	17523
ometric	17524
fill	17527
pil	17530
▁straw	17533
▁optimal	17535
▁privy	17536
action	17540
▁oka	17540
▁abundance	17543
▁auditor	17544
▁glory	17545
published	17545
khan	17549
▁landowner	17550
▁pseudo	17550
▁calcium	17555
▁rox	17555
buff	17557
▁ambition	17560
▁civilization	17565
▁philippe	17566
▁xiao	17574
▁chick	17583
even	17590
▁bubble	17593
▁rebuild	17594
skaya	17595
▁sinking	17596
▁confession	17600
▁hedge	17603
▁thomson	17609
▁gorge	17614
▁bride	17621
▁logistics	17621
▁banker	17627
▁hannah	17628
▁characterised	17629
rush	17629
▁revelation	17636
▁humanities	17638
▁gambling	17640
▁broker	17646
▁defunct	17652
▁antoine	17653
bahn	17653
▁dip	17653
▁agnes	17661
▁expeditionary	17662
▁issuing	17663
▁procession	17665
▁mvp	17668
▁healing	17670
▁aristocrat	17671
▁alexandra	17673
▁eliminating	17673
▁rotate	17677
▁emblem	17680
▁curse	17681
▁relieve	17684
▁coefficient	17685
▁diagnostic	17696
keeper	17702
▁archaeology	17709
▁mao	17714
▁percy	17716
▁bhu	17718
▁lem	17723
mot	17723
▁respiratory	17723
▁physicist	17729
beat	17731
▁compensate	17731
▁christine	17732
▁riverside	17732
▁violated	17736
▁vernon	17739
▁handicap	17740
▁eastward	17743
hardt	17744
▁spokesman	17749
▁atlas	17751
▁saba	17755
▁marquis	17760
▁kidnapped	17765
▁productive	17771
▁beech	17772
▁pau	17775
▁metallic	17778
▁slaughter	17779
▁platt	17780
▁angela	17785
▁conferred	17785
▁somewhere	17785
how	17795
ogenic	17795
▁stipulat	17797
▁horizon	17803
zier	17809
▁lithuania	17817
▁redesignated	17817
▁bavarian	17825
▁integr	17827
▁worm	17836
▁summoned	17841
▁congressman	17852
▁contingent	17858
▁boxes	17863
▁omni	17866
▁exponent	17867
▁cruel	17871
▁fry	17871
▁natal	17871
▁concerto	17875
▁tig	17882
▁sage	17884
▁southampton	17885
▁reconstructed	17888
▁samoa	17891
▁llan	17895
▁nav	17898
▁culminated	17905
▁jubilee	17906
▁bolton	17907
culture	17909
▁blockade	17913
▁griffith	17913
trans	17913
▁chromosome	17917
▁unrelated	17918
cost	17919
pay	17919
▁consultation	17921
▁buddha	17922
▁incentive	17926
ml	17929
wu	17933
gee	17938
▁anarchist	17939
▁dylan	17943
▁prompting	17947
gha	17954
▁rendering	17955
fan	17957
uta	17960
naya	17963
▁tit	17971
cephal	17976
▁tao	17977
▁brock	17979
▁duc	17980
▁inferior	17980
▁discharged	17982
▁realizing	17982
▁mughal	17983
▁sociology	17988
▁simulcast	17992
camp	17993
▁excavated	17995
▁pending	17999
▁hale	18002
rest	18008
ifier	18012
▁humanity	18013
▁nk	18013
▁consciousness	18014
▁staging	18019
wise	18019
▁forensic	18020
hari	18020
vir	18021
▁narrator	18022
▁cancel	18025
▁caesar	18031
▁paralympic	18032
▁baba	18035
▁brett	18039
▁distributor	18046
▁rabbit	18053
▁detached	18059
▁trevor	18060
iac	18069
▁oz	18073
▁ibrahim	18077
iana	18080
▁immense	18082
institut	18083
ographer	18083
osaur	18086
▁tsar	18087
▁investigative	18088
▁cherokee	18089
▁rainbow	18091
▁abbas	18093
▁accumulated	18095
▁ashley	18100
▁algerian	18101
▁deploy	18102
▁rotating	18103
▁diary	18111
▁eighteenth	18118
▁endowment	18119
▁similarity	18121
▁gandhi	18122
nin	18128
▁feat	18129
▁albany	18132
▁sharon	18137
▁consonant	18149
jin	18150
storm	18150
▁cb	18151
▁eugen	18151
▁wizard	18152
▁cumberland	18154
▁patri	18154
▁steadily	18158
▁manipulate	18161
▁applicant	18165
▁georgetown	18165
▁rie	18165
▁watts	18166
lac	18167
▁rebranded	18167
▁armament	18171
▁nixon	18174
▁damaging	18180
▁galleries	18183
▁recognise	18187
▁portable	18189
isi	18190
▁obscure	18190
▁fau	18192
▁spokesperson	18196
▁eleanor	18199
▁breakdown	18201
miya	18203
▁ix	18205
▁wagner	18207
▁jungle	18216
road	18218
▁homeless	18219
▁cun	18229
▁gust	18236
pala	18237
▁pageant	18243
▁barber	18244
▁cascade	18246
▁shake	18253
▁vacuum	18253
▁injection	18256
▁galli	18258
▁rebuilding	18259
▁skeleton	18261
▁insult	18269
▁polytechnic	18274
▁cala	18280
▁westward	18281
▁prefix	18285
▁dup	18287
angel	18292
▁ivory	18292
▁qualities	18292
▁jr	18295
▁exiled	18296
▁mutations	18300
▁castro	18302
dt	18302
▁katherine	18312
▁gujarat	18318
▁lime	18333
▁dominion	18335
▁advise	18336
▁pup	18341
ality	18344
oda	18352
▁bod	18353
▁falk	18354
park	18355
▁gymnasium	18356
▁refusal	18357
▁honda	18358
▁mortar	18364
▁cowboys	18370
▁mortality	18371
▁comprise	18372
▁pf	18376
▁backward	18378
▁mountainous	18383
▁muse	18383
▁cardiac	18387
beck	18388
▁catches	18389
▁abdullah	18390
▁brandon	18395
▁compulsory	18395
ensis	18401
▁latvian	18402
jer	18411
lung	18413
▁compliance	18414
▁facial	18423
▁bribe	18431
▁cartridge	18440
▁threshold	18453
▁trumpet	18455
ket	18458
▁manitoba	18466
▁subscription	18467
▁smoking	18474
lik	18478
▁frost	18484
▁fitting	18493
▁silence	18506
▁undefeated	18506
uni	18510
▁regret	18516
▁upstream	18517
kai	18518
▁limitations	18522
▁dissertation	18524
▁breakfast	18525
nda	18525
▁nichols	18525
▁persecution	18528
▁forestry	18534
▁speculated	18540
▁celebrities	18541
ilia	18543
▁motorsport	18543
▁luxembourg	18544
▁proposition	18555
▁stark	18558
▁cultivation	18560
▁dispatched	18563
▁interfere	18564
gla	18567
tham	18576
▁frozen	18580
▁neural	18587
▁guatemala	18588
▁winnipeg	18588
▁exposition	18591
▁amazing	18593
eye	18593
▁surpassed	18598
symp	18605
▁porch	18606
dhi	18625
▁balloon	18630
▁lucky	18635
▁pound	18640
▁conrad	18646
▁reproduce	18648
▁basket	18651
▁halfway	18651
▁honest	18651
▁intercept	18653
▁sherman	18653
▁basil	18657
▁armenia	18663
▁puzzle	18672
▁hostage	18676
▁fad	18678
▁shepherd	18681
▁northward	18686
▁uncertain	18686
▁communal	18688
umi	18696
▁dismiss	18698
▁drake	18700
dig	18701
▁grandmother	18704
▁downstream	18707
▁badminton	18708
▁competitor	18708
▁waived	18711
▁zip	18714
▁momentum	18722
▁weir	18722
▁radius	18725
▁newfoundland	18726
▁clyde	18732
▁swar	18732
▁ecuador	18736
▁hm	18738
▁roh	18740
▁stalin	18741
▁fuller	18742
fascist	18757
▁gifted	18758
▁flam	18762
▁jockey	18775
▁phillip	18777
▁autonomy	18787
▁amphi	18788
▁sovereignty	18789
▁disagree	18790
▁unusually	18791
brand	18795
▁substrate	18797
▁progressed	18799
unda	18802
▁whip	18805
▁eaten	18806
▁ambulance	18808
charge	18813
▁memorable	18818
▁tul	18818
▁statutory	18819
▁sten	18820
▁kosovo	18822
▁clinch	18823
▁experiencing	18824
▁sculpt	18824
▁sud	18826
▁percussion	18829
riz	18830
▁gravel	18834
▁kashmir	18839
▁holocaust	18840
▁flexible	18841
▁humor	18847
fertil	18849
▁transgender	18852
lab	18854
uter	18855
kor	18856
▁lucia	18862
oci	18867
▁wer	18867
▁owl	18869
▁intervene	18882
clo	18884
▁aerospace	18885
▁sanders	18892
▁munster	18895
▁residency	18907
▁spine	18909
▁aberdeen	18920
▁brussels	18921
igh	18939
▁kr	18949
▁scandinavia	18949
▁cyto	18963
▁funk	18972
▁unanimously	18972
▁timing	18977
bad	18978
▁sei	18979
▁trauma	18981
▁remarked	18984
▁slav	18991
▁mund	18992
▁klein	18993
▁inscribed	18997
▁strengthened	18997
▁dwarf	19000
▁activation	19006
▁surrey	19006
▁oslo	19016
ution	19017
▁motto	19022
▁berry	19028
▁bump	19034
illi	19036
▁disability	19041
▁ecosystem	19048
▁hyde	19050
▁stained	19058
▁isolation	19062
▁reminiscent	19064
▁contend	19067
▁musk	19076
fil	19078
▁belgrade	19079
▁presided	19088
▁blessed	19094
▁loading	19096
▁abnormal	19104
jack	19114
▁motorway	19116
▁sophisticated	19116
▁medication	19118
▁disciple	19129
▁procure	19129
pc	19136
▁perennial	19145
▁idaho	19151
▁parachute	19161
▁cornwall	19168
▁determination	19172
▁sodium	19175
▁gw	19176
spor	19186
▁liz	19197
▁mascot	19197
▁penalties	19202
▁jackie	19203
▁sem	19203
▁documentation	19204
▁penguin	19211
makers	19220
▁supplier	19223
▁lyrical	19239
▁prediction	19242
▁conception	19245
llo	19252
▁savage	19252
▁maneuver	19253
▁cheng	19255
▁integrate	19257
▁battleship	19265
▁cohen	19269
pore	19269
▁leap	19270
▁maid	19280
▁pius	19281
▁pitching	19285
▁rebecca	19285
▁freelance	19289
▁viii	19290
science	19292
▁harp	19296
▁stimulate	19296
▁passive	19297
▁nt	19302
▁countess	19306
nard	19312
▁prevalent	19312
▁rh	19317
▁belfast	19318
▁canvas	19321
▁typhoon	19322
▁ravi	19335
loaded	19342
▁turret	19346
rome	19351
▁walsh	19352
▁outlaw	19356
▁unrest	19367
isa	19370
▁mathematician	19373
▁aligned	19379
▁feedback	19379
▁cay	19381
▁giuseppe	19381
▁profound	19399
itt	19400
base	19402
▁triggered	19411
▁rudolf	19427
rug	19429
▁bolivia	19431
hab	19431
▁privacy	19433
▁griffin	19434
▁disadvantage	19436
▁organisms	19439
▁stuck	19440
▁fir	19443
▁ussr	19448
▁assassin	19456
▁symmetric	19462
▁synod	19468
▁orchestral	19469
▁qatar	19470
▁deficit	19481
▁forbidden	19482
▁tonnes	19489
▁anticipated	19492
dock	19494
▁rca	19496
▁dwelling	19497
rna	19498
credit	19500
▁masa	19500
▁gale	19501
▁obstacle	19504
▁cafe	19507
▁nickel	19507
▁cere	19508
▁catalan	19509
▁suffix	19509
ambi	19521
▁burke	19522
▁harmony	19531
▁hydraulic	19537
▁inches	19541
▁integrity	19541
▁cure	19552
stop	19554
▁inflict	19555
iza	19555
▁wald	19556
▁mk	19563
▁captive	19566
▁outskirts	19568
▁macdonald	19571
aff	19572
▁sci	19574
▁entities	19576
▁quarry	19578
▁winston	19580
▁viewer	19582
▁monkey	19588
▁mortgage	19596
▁behavioral	19597
▁espn	19599
▁exceeded	19604
▁stuff	19610
▁triangular	19611
▁participant	19612
▁disco	19614
zong	19619
▁sidney	19620
▁josef	19624
▁parody	19627
▁copenhagen	19629
▁muk	19632
▁displacement	19641
▁spill	19644
▁crawford	19645
▁foul	19645
▁prehistoric	19646
▁villagers	19647
▁concord	19655
tc	19657
▁posterior	19659
islav	19663
tree	19666
▁rhine	19672
▁salon	19672
▁riv	19673
▁memphis	19674
▁venetian	19676
esse	19682
▁geoffrey	19682
▁augustus	19696
▁corr	19698
▁dodge	19708
▁stripped	19709
▁comfortable	19716
▁tablet	19721
▁subset	19731
▁aires	19737
▁burnt	19746
▁jessica	19748
▁hayes	19754
▁silicon	19758
▁confrontation	19760
▁meteor	19760
▁trafficking	19760
listed	19765
▁nash	19770
▁medalist	19771
▁dav	19777
▁monroe	19781
▁critique	19784
▁nag	19786
▁hob	19787
▁default	19795
▁approximate	19803
fair	19806
▁martyr	19821
▁naked	19825
▁refusing	19825
loy	19826
▁mechanics	19826
▁pablo	19829
▁panic	19837
▁windsor	19843
hop	19848
▁chassis	19861
▁providers	19864
chemical	19866
dler	19868
nier	19868
▁coordinated	19872
clus	19874
▁peruvian	19878
▁telugu	19878
▁stunt	19881
▁subdivided	19881
mount	19887
▁unnamed	19887
cliffe	19888
▁tian	19892
▁cambodia	19901
▁sancti	19901
▁duchess	19905
▁warrior	19913
iri	19923
▁arabia	19925
▁stance	19925
wang	19925
▁kerry	19930
▁wander	19930
▁accompany	19932
▁mare	19934
▁sept	19938
morphism	19939
sea	19940
▁textbook	19944
▁publicity	19948
▁reunion	19953
▁brewery	19954
▁halifax	19955
▁pga	19956
▁definitive	19960
▁roma	19960
▁columnist	19962
▁gravity	19963
▁consumed	19964
name	19965
▁dictionary	19966
▁nil	19968
mere	19974
zhen	19976
▁arabian	19980
illy	19980
▁gag	19985
▁rack	20006
▁wb	20011
▁capped	20012
structure	20012
▁portsmouth	20019
▁identifies	20020
▁devotion	20021
▁ngo	20025
▁underwater	20040
ace	20041
ogram	20042
hole	20043
▁leopold	20044
▁kane	20046
mina	20047
▁nottingham	20049
ometer	20049
▁michelle	20050
▁decommissioned	20056
▁postgraduate	20058
▁butter	20062
friend	20067
▁batter	20073
▁morrison	20098
▁claire	20099
mad	20102
▁orphan	20103
▁recruiting	20105
▁alberto	20114
rent	20118
▁bundle	20122
▁conservatory	20122
▁patriotic	20125
zia	20131
▁spacecraft	20132
▁mw	20134
induced	20135
▁janet	20139
was	20144
grove	20147
▁singular	20160
ffin	20167
▁circus	20169
▁hiv	20172
▁ancestral	20182
▁gym	20186
▁toyota	20188
▁bron	20189
conscious	20190
▁pagan	20191
▁objectives	20192
▁collectively	20194
▁zam	20199
▁indicator	20210
▁cyprus	20213
▁brunswick	20214
▁testified	20216
▁praising	20222
▁scots	20222
▁consequently	20226
▁hampton	20234
▁kidney	20235
ghan	20237
▁isabel	20240
▁benedict	20241
▁icelandic	20249
▁reversed	20251
shu	20254
open	20270
▁pulp	20279
▁wyn	20283
dio	20284
ddle	20285
oriented	20286
▁fringe	20296
▁realistic	20296
▁whitney	20304
▁colleague	20306
▁anthem	20311
▁homer	20311
▁expertise	20315
▁explicit	20316
▁rental	20319
▁saxon	20325
▁evacuation	20329
▁pulse	20338
▁laude	20339
▁practicing	20341
complete	20351
▁guaranteed	20357
▁runners	20362
▁weekday	20365
▁expressway	20366
▁specialty	20366
uddin	20367
▁meyer	20375
got	20388
▁timothy	20390
mand	20393
▁edmonton	20394
▁overlooking	20399
dc	20402
▁magistrate	20402
▁quantities	20404
▁bharat	20411
▁numerical	20414
▁donation	20415
▁offence	20415
▁disguise	20416
▁troy	20416
▁ribbon	20417
date	20421
▁miners	20427
▁locate	20431
▁constituencies	20438
▁ceremonies	20443
▁gaz	20447
▁baldwin	20451
▁surge	20453
▁bald	20455
▁negotiate	20467
spec	20469
▁leigh	20474
▁traverse	20489
life	20492
▁basque	20495
ota	20496
▁sanskrit	20496
▁slavic	20510
fred	20516
▁elm	20520
▁resume	20521
▁detained	20539
idi	20539
▁reorganized	20540
▁courage	20543
nen	20545
▁kap	20546
▁calculation	20548
▁livestock	20555
▁ignored	20558
▁deaf	20559
▁android	20560
model	20564
game	20567
▁scotia	20576
▁accent	20577
▁warwick	20581
▁chrys	20586
▁anterior	20594
▁inventor	20601
hem	20607
▁float	20608
▁gateway	20612
▁cheese	20613
trust	20619
▁bruno	20620
▁wholly	20633
▁dominate	20636
▁brewer	20637
▁eco	20639
raw	20641
▁unaware	20644
▁hou	20646
▁elliott	20655
▁hua	20660
▁retrospective	20666
wald	20666
▁computational	20668
▁alarm	20671
▁rc	20671
▁announcing	20673
▁boycott	20677
▁licensing	20685
▁vampire	20694
▁commodore	20700
▁prohibition	20701
▁lancaster	20702
▁luther	20706
▁carpenter	20707
leigh	20710
▁tetra	20710
▁celebrating	20717
▁venezuela	20719
▁effectiveness	20721
▁malta	20723
▁churchill	20724
▁tallest	20728
▁iconic	20730
world	20730
▁syndicated	20735
dhar	20743
▁vine	20743
▁vatican	20751
▁randy	20754
ui	20754
enza	20755
dding	20761
▁adjoining	20762
▁intimate	20764
▁collaborator	20772
▁rented	20774
▁automotive	20776
▁leisure	20776
▁holl	20786
▁ambitious	20790
▁kitt	20791
uma	20791
▁watershed	20791
▁macedonian	20792
mura	20800
▁chaplain	20802
▁terror	20803
▁orlando	20804
▁passport	20805
own	20810
▁condemn	20812
▁rejoined	20815
▁sufficiently	20817
▁occurrence	20819
▁imagine	20826
number	20828
▁marina	20833
▁amended	20836
▁relax	20836
▁coordination	20838
zha	20845
▁hr	20852
ilo	20853
idio	20855
▁loosely	20858
▁weld	20861
▁imaging	20862
▁enterprises	20867
wei	20870
mani	20874
▁miniature	20874
▁bedford	20879
▁scenario	20879
▁augment	20881
▁originating	20881
▁mongolia	20886
▁posthumously	20893
standing	20900
▁caste	20901
▁dreams	20906
▁unesco	20907
▁fracture	20909
vol	20909
▁saskatchewan	20919
▁sophomore	20925
ologies	20934
hwa	20936
▁cage	20940
▁statewide	20946
▁barnes	20949
child	20949
▁canceled	20951
▁devote	20967
▁scu	20972
▁turtle	20975
▁suspicion	20976
aux	20977
▁wetland	20977
▁hardy	20979
lecommunications	20979
▁borrowed	20985
▁thursday	20987
▁preparatory	20990
liter	21010
night	21010
▁midnight	21011
▁complaint	21012
▁dong	21020
▁potter	21025
▁astronomer	21026
▁fiba	21028
▁rbi	21040
pr	21050
▁oath	21054
▁recommendation	21060
▁carroll	21061
▁mata	21063
▁declining	21064
▁lifelong	21066
▁fortified	21067
▁premium	21072
rium	21074
ario	21082
▁fro	21083
ema	21102
chron	21103
graphic	21111
hya	21113
anta	21124
▁hermann	21124
phi	21126
▁telescope	21126
▁outlets	21129
▁tunisia	21134
oz	21136
▁nie	21139
garh	21141
▁volcano	21141
▁midway	21146
▁blair	21147
▁evacuated	21149
▁sikh	21149
▁barack	21153
▁automated	21154
▁brush	21154
▁diana	21154
▁terri	21164
▁crane	21174
illon	21188
▁transferring	21189
▁bolt	21192
▁implies	21193
▁pepper	21197
▁blame	21202
▁felix	21205
▁illustrate	21206
▁puppet	21210
▁gameplay	21212
▁roland	21216
▁nutrition	21218
▁mich	21220
▁securities	21223
play	21232
▁promoter	21245
▁complexity	21246
▁declaring	21246
▁rite	21250
▁conquer	21253
typ	21255
▁yoshi	21257
▁calm	21259
▁mona	21263
guer	21265
▁oblast	21265
▁thrust	21271
▁albeit	21279
▁mapping	21285
▁bund	21286
▁ethiopian	21286
▁audit	21288
▁interception	21297
▁europa	21301
▁occupying	21304
lag	21307
eman	21314
▁locked	21322
clar	21335
▁gad	21337
▁dedication	21340
▁trustee	21345
▁batch	21347
▁calgary	21351
inous	21352
▁naka	21356
▁sacked	21356
trop	21356
▁eponymous	21357
▁forecast	21359
▁insects	21359
centennial	21368
▁daytime	21378
▁gian	21386
ete	21391
▁psychiatric	21392
▁bulgaria	21395
▁jeffrey	21405
asa	21407
▁consortium	21410
▁diminish	21417
▁mb	21423
thorpe	21425
▁balkan	21427
▁zimbabwe	21427
dine	21429
▁np	21431
▁comeback	21434
kill	21443
syn	21444
▁johannes	21450
▁thames	21454
▁ambush	21459
▁mikhail	21459
vu	21462
▁hank	21464
▁scha	21467
▁assuming	21468
▁emergence	21468
▁disagreement	21474
▁raiders	21475
lop	21490
scope	21494
▁voter	21499
▁complications	21514
▁mongol	21514
▁mohammed	21517
▁machinery	21519
▁deliberately	21520
▁weakened	21524
▁visitor	21526
▁hoo	21531
▁deputies	21532
▁irrigation	21535
▁spiral	21535
yi	21536
▁ev	21538
▁nur	21552
▁jumping	21563
making	21564
▁astronomical	21567
▁readily	21569
▁tama	21580
▁recess	21581
▁silva	21586
▁harper	21592
▁salmon	21594
▁mumbai	21595
▁playwright	21597
▁guerrilla	21601
▁decay	21606
▁factories	21610
▁generator	21611
sexual	21612
▁asylum	21613
▁cath	21615
▁spanning	21615
him	21617
▁trench	21621
▁nordic	21633
▁lud	21637
▁rafael	21640
zin	21643
▁financing	21651
▁occupies	21659
▁demonstrating	21660
xin	21663
▁contestant	21665
▁trucks	21665
▁poli	21674
▁slogan	21674
▁siblings	21675
▁viscount	21676
▁girlfriend	21677
mod	21677
lington	21680
▁kom	21682
▁poetic	21682
▁bohemia	21691
▁doll	21694
▁processor	21700
▁flourish	21701
▁geneva	21709
▁barracks	21718
▁calvin	21720
▁synagogue	21720
▁xbox	21720
▁electorate	21724
▁burden	21728
▁kau	21730
tai	21734
▁paulo	21737
phyll	21739
phen	21742
▁fiji	21745
nor	21746
▁choral	21752
▁prague	21770
▁asserted	21771
▁interred	21772
▁santos	21772
▁borrow	21775
tun	21782
▁cham	21794
rip	21799
▁loyalty	21800
▁semifinals	21807
▁persuade	21808
▁nevertheless	21817
▁clari	21829
▁averaging	21834
▁lineage	21834
▁diagnosis	21835
▁eclipse	21835
▁schi	21836
▁pru	21840
raja	21843
methyl	21844
▁motivated	21846
▁loch	21859
oto	21868
▁tooth	21882
▁summary	21887
hana	21892
▁precipitation	21895
▁vocational	21895
▁unclear	21898
▁wilderness	21899
▁mater	21900
▁beaver	21902
rai	21905
▁worcester	21909
ault	21912
▁switching	21917
▁blanc	21925
▁emphasized	21934
▁negotiated	21934
▁staple	21934
▁tasmania	21934
▁relieved	21937
▁paved	21943
▁cultivated	21946
▁reprise	21948
▁suffrage	21949
runner	21951
▁wednesday	21958
▁pistol	21963
▁clara	21964
▁reynolds	21966
any	21975
▁finale	21979
▁reproductive	21979
▁acclaim	21980
▁pleasure	21998
▁addresses	21999
▁detention	22001
▁filling	22005
▁jag	22010
▁outfit	22029
▁archdiocese	22050
▁branded	22052
▁arn	22053
▁homeland	22057
▁pyramid	22059
care	22064
hear	22064
▁boast	22070
▁nonprofit	22070
▁lava	22074
sufficient	22077
▁smash	22080
▁wishes	22082
▁mystic	22087
▁confined	22089
▁capability	22095
▁trinidad	22095
fle	22101
▁accuracy	22104
▁fairy	22112
▁poles	22130
adi	22131
▁serb	22135
tent	22145
▁plasma	22150
▁anywhere	22151
enstein	22152
▁abbreviated	22154
▁differentiate	22160
▁wrestle	22164
▁surround	22182
▁venezuelan	22188
▁quantity	22196
nut	22198
▁sunk	22199
▁thread	22200
qi	22202
▁ethical	22205
▁frigate	22210
▁cf	22216
▁rankings	22218
▁binary	22221
▁distribute	22221
▁tile	22224
kka	22225
mut	22229
▁bengali	22230
▁robertson	22239
▁prophet	22251
▁excel	22252
▁confluence	22262
▁sleeping	22264
▁burst	22279
▁mixing	22280
▁gm	22282
▁comparing	22283
▁mistaken	22288
▁reinforcement	22290
▁proponent	22300
▁treasurer	22302
oxy	22303
▁rak	22309
▁prima	22312
▁melody	22331
▁flip	22332
▁tended	22333
court	22335
meter	22344
pho	22346
▁televised	22346
▁emeritus	22347
▁francesco	22356
corn	22357
▁stockholm	22359
▁spit	22364
▁purely	22369
▁saga	22369
▁chest	22370
▁desperate	22370
▁simulation	22372
▁threatening	22380
▁cate	22393
▁swimmer	22398
determin	22401
▁vince	22404
▁inherent	22407
ovic	22414
▁podcast	22416
▁fog	22417
▁lao	22420
▁tribunal	22427
▁faithful	22432
▁chandra	22436
▁continent	22442
att	22443
oga	22455
▁acquiring	22456
gna	22461
▁educator	22466
▁witt	22468
▁interference	22470
▁pipeline	22475
▁cherry	22477
▁sexually	22480
wara	22490
▁folded	22495
zio	22495
▁orbital	22501
▁extant	22506
▁freeway	22507
▁colombia	22508
▁barely	22513
▁projection	22515
▁unemployment	22521
▁henderson	22538
▁intelligent	22540
▁geography	22544
omy	22550
▁dent	22556
▁apprentice	22559
▁donor	22560
▁specializing	22561
▁overthrow	22562
▁ethno	22563
▁dil	22570
▁paternal	22573
▁administer	22574
▁relied	22584
▁cloth	22592
▁powell	22592
▁translator	22600
▁flies	22601
▁transmit	22603
▁speculation	22604
▁vein	22604
▁ensuring	22626
lap	22626
▁capabilities	22630
▁deceased	22634
▁reid	22640
▁renewable	22645
▁willie	22647
▁aunt	22652
▁cheer	22656
▁eduard	22656
rose	22658
▁tendency	22662
▁reasonable	22667
▁annie	22668
▁organizer	22671
▁burton	22675
evich	22675
▁bombers	22683
▁tertiary	22683
▁archaeologist	22691
eira	22692
psych	22718
▁brent	22722
▁tara	22731
▁carefully	22735
▁undertake	22737
▁moses	22742
▁forewings	22746
▁lunch	22747
▁steering	22748
▁derek	22750
▁slovak	22751
▁harmon	22752
lane	22755
▁surprising	22759
woman	22760
▁tactics	22768
mie	22777
▁reverend	22781
▁mot	22783
▁optional	22783
▁rao	22786
dre	22789
▁compress	22791
▁scenic	22798
▁logan	22800
▁chef	22801
▁frankfurt	22801
▁dart	22811
▁courthouse	22818
▁runner	22819
optic	22827
▁booth	22832
▁curved	22843
▁acknowledge	22845
gro	22845
rol	22846
▁pretend	22851
▁thermo	22877
▁pierce	22878
▁gut	22881
▁gt	22887
▁joshua	22894
▁noun	22898
eiro	22899
▁kg	22903
▁fran	22918
▁catalog	22923
iki	22928
▁limb	22928
▁cellular	22930
dol	22933
▁emissions	22934
▁persist	22936
▁haz	22939
▁lightning	22942
▁guan	22949
▁concentrate	22951
▁batteries	22955
ovsky	22957
▁trent	22968
▁luck	22972
▁pottery	22973
▁motivation	22976
▁provider	22977
▁shirt	22977
▁wwe	22977
▁continuation	22978
▁reactor	22978
▁encompasses	22980
▁shire	22983
sbury	22993
▁mali	22998
▁stopping	23004
▁chord	23007
▁ensuing	23008
▁sentiment	23012
▁purchasing	23013
▁novelist	23015
▁cove	23016
▁kru	23022
▁additionally	23024
▁fare	23026
▁ferri	23026
▁pedestrian	23027
▁jets	23028
▁conceal	23032
bow	23034
▁tales	23038
▁madras	23043
▁betty	23045
▁swim	23047
try	23056
▁custody	23061
▁wad	23062
walk	23065
vey	23066
utter	23077
▁cooking	23079
▁shiva	23079
▁presumably	23083
▁pill	23092
▁rah	23093
▁rushed	23095
▁pseudonym	23099
rail	23103
▁alignment	23111
▁haven	23114
▁prairie	23114
lysis	23121
▁lighter	23136
▁eg	23137
▁lam	23139
▁seminar	23142
▁canterbury	23145
▁richardson	23157
▁conceptual	23165
▁kingston	23169
▁skip	23170
▁charm	23171
onne	23177
▁pleasant	23185
▁ingredient	23187
▁jorge	23187
▁chicken	23188
▁imprisonment	23193
▁dimensions	23194
▁instructed	23207
▁corrupt	23210
▁primitive	23213
▁complained	23224
▁pollution	23225
croft	23234
▁ethics	23235
▁governance	23235
▁synthetic	23242
capacit	23250
ige	23264
▁titular	23265
▁publishers	23266
▁haiti	23274
▁shipyard	23279
▁feared	23285
▁dimension	23291
▁apartments	23297
▁parishes	23297
▁scouts	23298
▁artifacts	23299
▁brilliant	23299
▁nashville	23299
▁genome	23300
ost	23302
▁hick	23306
▁sphere	23308
▁lifted	23315
▁abundant	23318
▁appreciate	23319
▁hiding	23320
▁quota	23320
▁thu	23324
▁steady	23328
▁talented	23329
▁pioneering	23333
▁handful	23334
▁lowland	23340
▁joel	23346
yon	23348
▁andrews	23351
▁pest	23361
▁lancashire	23372
▁abbot	23378
pie	23378
▁rho	23378
▁cricketer	23394
▁mound	23394
ffy	23398
▁saf	23401
▁missionaries	23404
▁vit	23412
▁choosing	23419
▁guidelines	23427
▁bombardment	23432
▁della	23433
hart	23433
▁quartet	23440
▁sebastian	23446
▁exploring	23450
▁incorporating	23453
▁quote	23458
owski	23460
▁mt	23467
▁regulated	23470
▁slide	23470
▁mrs	23475
▁indication	23476
▁thur	23476
▁embedded	23477
▁ira	23478
mara	23478
tour	23480
▁prompt	23485
combe	23487
▁paramount	23489
▁dai	23491
▁subway	23491
▁excluded	23492
▁lumber	23492
▁nit	23498
hit	23500
magn	23504
▁accord	23512
his	23515
▁milli	23516
▁sussex	23516
▁kro	23526
▁encouraging	23528
▁salvador	23528
mounted	23530
▁repeal	23531
▁performer	23540
▁initiatives	23543
▁ulster	23543
▁defining	23544
▁neglect	23544
hin	23558
boo	23561
▁garage	23562
▁varsity	23562
▁practitioner	23567
onian	23572
▁submission	23573
▁deciding	23578
▁pupil	23578
▁neighbor	23581
ush	23583
▁croatia	23587
▁precursor	23587
▁dio	23590
wave	23600
▁lengthy	23604
▁spatial	23607
class	23613
▁phi	23615
cken	23617
▁empower	23620
▁rope	23625
▁orientation	23636
▁builder	23642
plan	23650
▁vir	23650
▁portal	23657
aceous	23663
▁contacted	23666
lai	23667
bian	23682
▁millennium	23683
▁controller	23686
▁kenny	23687
rag	23688
▁qi	23700
▁speedway	23700
▁vijay	23703
▁molecules	23704
▁tub	23707
▁shortened	23712
▁collision	23716
▁verbal	23720
▁rhe	23723
▁resolved	23724
▁spare	23727
quest	23731
▁plymouth	23733
▁selective	23735
▁applies	23736
▁approaching	23743
▁proceedings	23743
▁brighton	23746
leg	23750
▁sheikh	23751
▁nave	23754
▁patricia	23764
▁testimony	23764
▁bonds	23766
bee	23773
▁plural	23774
▁contrary	23777
▁overwhelming	23780
▁realm	23780
▁gibson	23800
▁separately	23802
▁ufc	23807
▁pounds	23823
▁lightweight	23828
ht	23832
▁denomination	23837
enheim	23837
▁surprised	23842
▁shareholder	23844
▁apostolic	23853
tie	23854
▁viral	23856
▁mlb	23862
▁colombian	23864
▁offshore	23864
▁clothes	23897
▁ek	23900
▁brit	23905
▁galaxy	23916
▁georg	23922
kk	23933
glia	23944
▁chand	23945
▁boiler	23951
▁sme	23961
qu	23962
▁genuine	23965
▁tat	23968
▁memories	23975
▁shakespeare	23976
stand	23977
▁nut	23979
▁botanical	23982
tori	23982
▁shortage	23984
▁drunk	23988
lou	23988
▁annexed	23995
▁hanging	23999
▁avoided	24002
burgh	24003
▁sitcom	24004
▁swamp	24014
▁touchdowns	24021
▁dro	24022
▁gam	24022
rine	24024
▁pharmaceutical	24025
▁illumina	24029
▁transcription	24032
▁regained	24041
▁thy	24041
▁dump	24045
▁fraser	24046
▁palestine	24055
▁nau	24059
▁absorb	24069
▁stat	24071
wear	24073
▁swept	24075
▁telegraph	24079
onym	24082
▁lynch	24089
dorf	24094
▁amino	24096
close	24096
▁photographic	24096
▁curator	24097
rc	24097
▁chartered	24104
▁whenever	24124
▁valentin	24126
▁pant	24129
▁favored	24137
ifer	24141
▁mohammad	24141
tier	24144
▁nose	24148
▁servant	24151
asi	24152
▁partisan	24154
▁protective	24155
▁motif	24174
▁sculptures	24177
▁pillar	24181
▁bot	24184
▁notorious	24201
aceae	24202
▁demolition	24208
▁announce	24209
▁proportional	24214
tropic	24235
▁cornell	24239
▁magical	24245
▁nervous	24251
▁refugee	24251
▁durham	24260
▁pep	24262
▁coined	24264
▁spreading	24265
▁concession	24266
▁detected	24267
▁holes	24271
▁geometric	24274
▁converge	24279
▁vegetable	24279
▁malcolm	24280
▁traced	24289
rig	24290
volv	24293
▁lebanon	24295
▁pray	24295
▁hymn	24298
▁advocacy	24303
signed	24304
▁emphasize	24316
▁postponed	24319
▁archer	24324
▁hurling	24324
▁displaced	24327
▁gel	24332
▁stud	24335
▁thorn	24337
▁alexandr	24347
▁quo	24349
▁donations	24360
▁item	24360
▁glu	24362
chev	24368
▁supervised	24369
▁uruguay	24372
rh	24376
ttering	24384
▁lacking	24393
▁montana	24394
▁nacional	24394
▁stevens	24399
▁chau	24409
▁shuttle	24409
▁bil	24415
piece	24417
▁ernst	24419
lich	24420
▁repairs	24426
zzi	24428
▁counterpart	24434
▁merge	24438
turn	24440
▁scrap	24445
▁welcome	24445
sten	24452
▁attained	24469
▁disputed	24488
▁invite	24503
fest	24505
▁dow	24507
▁merchants	24514
▁infected	24517
dong	24520
▁rehabilitation	24527
▁oh	24528
▁floating	24529
▁affecting	24532
▁discussing	24533
▁stro	24539
▁sworn	24543
▁essays	24544
▁reservation	24546
▁welcomed	24552
▁substantially	24557
▁vor	24562
▁pavilion	24563
▁boo	24564
▁blamed	24566
▁dom	24570
▁santo	24585
▁bailey	24596
▁hypothesis	24600
▁encoded	24604
▁jake	24604
lem	24606
▁detection	24610
▁email	24612
▁guru	24618
▁gods	24619
▁particle	24621
▁dorothy	24623
ophi	24626
▁eb	24637
▁premises	24637
▁chelsea	24643
▁atmospheric	24648
▁remake	24648
▁tumor	24651
voca	24656
▁transmitted	24657
▁retro	24668
▁dug	24670
cra	24671
apa	24673
▁innocent	24685
▁terminated	24693
▁shipped	24696
▁finest	24697
▁compare	24699
▁supposedly	24699
▁marion	24702
▁magnet	24704
▁oppose	24705
taking	24709
▁breakthrough	24710
▁fitness	24712
ogen	24722
▁reflection	24724
▁adverse	24729
ign	24729
▁ladies	24730
▁preston	24732
▁unlikely	24735
▁hawaiian	24737
▁evolutionary	24742
▁contradict	24745
dynamic	24745
ann	24747
▁graz	24747
▁immune	24747
▁tibetan	24753
oke	24757
▁proud	24760
▁tyler	24764
▁mira	24765
▁associates	24767
national	24770
▁seating	24774
▁libya	24775
▁tsu	24777
▁columbus	24784
▁kali	24785
▁precise	24793
▁determining	24795
tsch	24796
▁ceremonial	24797
▁synchro	24805
▁dies	24806
avan	24809
tempo	24811
▁petroleum	24812
▁trapped	24813
mul	24826
▁johnston	24832
▁bacteria	24837
▁gibb	24845
ido	24845
▁pes	24847
▁santiago	24863
▁vene	24866
▁armstrong	24871
▁commuter	24874
▁qualifier	24884
▁intensive	24892
ania	24894
▁possessed	24898
▁taxi	24899
read	24900
▁angels	24901
▁surveillance	24902
▁virtue	24902
▁satisfy	24907
▁bradley	24913
▁striker	24918
▁tire	24924
▁nascar	24932
▁prose	24937
▁elderly	24942
▁teaches	24945
▁engaging	24947
▁valued	24956
▁suite	24958
▁contractor	24959
▁publishes	24960
▁heinrich	24962
trem	24968
amo	24972
jah	24982
▁simpson	24984
▁loaded	24992
▁jac	24995
▁davies	25007
▁descendant	25007
▁manila	25011
▁melan	25016
▁utilized	25022
▁fragments	25032
▁organise	25032
▁accepting	25033
▁bias	25034
▁gallo	25034
▁warehouse	25037
▁migrated	25038
▁accelerate	25044
▁console	25047
▁lea	25050
divi	25052
▁hin	25055
▁launching	25060
▁oversaw	25076
▁skilled	25076
▁abilities	25082
▁holmes	25084
bot	25085
wig	25089
▁explaining	25090
▁spr	25093
▁gh	25100
▁canoe	25101
▁metric	25111
▁paleo	25111
▁availability	25113
gli	25118
▁sovereign	25118
▁lesbian	25130
lusion	25132
▁heroes	25133
▁wise	25133
amine	25142
▁fees	25143
▁slavery	25146
▁meter	25154
bay	25155
▁quest	25162
shin	25166
▁similarities	25174
▁boris	25175
phil	25176
▁hun	25188
▁coupled	25192
▁johan	25200
▁somerset	25204
▁reich	25205
▁rican	25206
▁vii	25206
▁gr	25212
▁essex	25213
▁grape	25216
▁pir	25216
lett	25219
▁brooks	25221
▁syndrome	25234
ashi	25235
▁infinite	25239
▁feather	25253
▁succeeding	25257
version	25258
▁manuscripts	25259
lang	25267
▁hotels	25270
▁sustain	25276
▁tickets	25277
fon	25288
▁respectively	25289
wyn	25302
▁meh	25309
▁naga	25310
▁twelfth	25312
▁fierce	25316
ounce	25316
▁fraction	25332
▁flowing	25338
▁inhabit	25340
▁dose	25342
▁unanimous	25343
wy	25350
▁champ	25364
▁investigating	25368
▁settling	25372
▁stor	25380
responsibilities	25394
▁hire	25397
▁respected	25402
▁peri	25409
▁axe	25414
▁composite	25414
▁macro	25433
▁spe	25433
▁recommendations	25436
ache	25439
▁martha	25445
▁bones	25451
pool	25451
▁hiro	25455
▁situations	25462
sport	25471
▁finn	25477
▁fr	25480
▁catalogue	25481
▁affiliation	25484
rell	25485
▁enlarged	25487
▁wheels	25493
▁periodical	25495
▁nerve	25502
▁obligation	25506
▁generic	25510
ule	25510
▁cease	25525
▁pursuing	25525
▁mistake	25531
▁karen	25533
▁terrestrial	25533
▁plague	25534
▁collapsed	25539
▁sue	25543
▁mouse	25547
▁dollar	25553
▁drift	25555
▁lucy	25557
▁haul	25561
▁recount	25563
▁economist	25564
▁challenger	25566
▁advancement	25573
▁lebanese	25573
▁searching	25581
▁stereo	25583
▁franc	25591
yana	25592
▁brake	25598
▁berkeley	25599
▁porter	25603
ucci	25604
▁professionally	25620
▁cia	25629
▁contra	25631
▁defendant	25632
kal	25637
▁olympia	25645
cite	25651
▁sandstone	25651
▁demanding	25654
grave	25669
▁legitimate	25670
▁chad	25679
▁container	25688
▁dys	25703
▁spike	25703
▁cedar	25723
▁busy	25726
▁revealing	25731
▁pastoral	25732
uga	25740
▁hau	25745
▁rotten	25747
▁handball	25751
▁protesters	25751
▁villain	25758
stadt	25762
▁mick	25763
▁papua	25772
▁mob	25775
ground	25784
▁asteroid	25788
▁pea	25812
▁claude	25813
▁enclosed	25814
▁gp	25822
▁milton	25822
▁constituted	25843
▁cosmo	25857
▁strategies	25861
▁reliable	25863
▁warsaw	25871
mour	25874
▁hon	25877
lish	25877
▁rams	25878
▁emotion	25882
lah	25882
▁hostile	25904
stad	25907
▁correspondence	25910
▁payments	25923
▁monetary	25927
▁spawn	25931
▁maple	25932
▁vermont	25939
▁lyric	25940
▁hugo	25945
▁powder	25951
▁comparable	25952
escu	25953
▁dh	25959
▁gaelic	25959
▁papa	25961
jar	25969
▁regulate	25973
▁fond	25975
▁butterfly	25978
▁teenager	25980
zie	25983
hai	25987
▁stack	25989
see	25990
nett	26007
▁gul	26010
temp	26011
▁kicked	26016
▁bigger	26021
▁bos	26021
cultural	26028
▁dawn	26028
▁viewing	26029
▁identifying	26030
▁ceramic	26034
▁tutor	26035
▁opted	26042
▁lean	26051
▁aided	26055
lice	26055
has	26057
▁hopkins	26069
▁bry	26086
▁enacted	26088
▁elephant	26096
▁tide	26096
▁pap	26097
ente	26101
▁fuji	26102
▁crusade	26104
craft	26116
▁lifestyle	26122
▁arrange	26126
▁terrain	26132
▁yugoslavia	26137
▁prof	26140
▁angry	26141
▁duncan	26143
vil	26150
▁backup	26151
▁resided	26154
▁strongest	26154
▁wished	26154
▁lex	26156
▁dairy	26160
mc	26165
oxide	26169
▁militant	26171
▁appealed	26178
gard	26178
▁bankruptcy	26184
▁pirates	26191
▁wh	26200
▁oval	26203
▁treasure	26204
▁lever	26210
aria	26211
▁computing	26217
▁triangle	26219
▁complicated	26224
▁bomber	26227
▁please	26227
▁slope	26229
▁wartime	26230
▁utilize	26231
▁newport	26232
group	26234
▁liver	26234
▁drainage	26235
▁sanctuary	26237
▁empress	26243
posi	26245
▁turbine	26250
▁erect	26259
▁petersburg	26262
▁correspondent	26264
▁amsterdam	26265
▁basement	26266
▁tourists	26273
▁flown	26276
▁rust	26292
▁listening	26297
▁rovers	26311
▁shade	26312
▁nebraska	26317
vio	26318
▁convent	26325
▁witnesses	26325
▁button	26333
▁meso	26338
eta	26340
▁fountain	26342
▁pretty	26344
▁negro	26352
▁nsw	26357
▁prefecture	26357
▁carnegie	26372
mund	26378
▁bac	26382
▁seemingly	26382
▁boxer	26388
▁recommend	26388
▁securing	26392
▁definite	26394
uki	26394
▁prolific	26406
▁retaining	26413
▁zhu	26417
▁abolition	26420
▁eleventh	26431
maker	26436
▁descended	26437
▁fence	26439
▁confederation	26447
col	26452
▁vegetation	26460
▁peaking	26471
▁ober	26475
▁rim	26488
▁analytic	26489
▁khu	26489
▁plu	26495
▁jeremy	26496
pole	26496
isse	26504
▁resolve	26513
▁wick	26513
▁shaft	26523
under	26524
core	26529
▁climbing	26535
lev	26547
▁ibm	26550
▁floors	26554
▁immigrant	26557
▁ludwig	26558
▁contestants	26560
▁pathway	26566
▁idol	26567
▁discharge	26571
▁specimen	26571
▁cry	26574
▁rowing	26581
▁hollow	26586
▁symbolic	26586
▁moh	26595
ald	26597
▁perth	26597
▁laugh	26598
▁jennifer	26599
▁anthology	26607
▁complaints	26607
▁scholarly	26613
▁collaborative	26618
▁broader	26621
▁beliefs	26625
▁compounds	26628
▁theorem	26628
▁feast	26633
▁surrendered	26635
▁ballad	26640
▁vacant	26643
▁hindi	26645
▁diplomat	26660
▁edwin	26663
ovo	26669
▁garnered	26670
▁dental	26671
▁armored	26678
uka	26680
▁adolf	26683
▁editing	26689
▁tiny	26691
factor	26694
▁nano	26694
▁lav	26698
▁rescued	26698
▁treasury	26703
▁explicitly	26705
fra	26705
made	26707
▁currency	26709
▁dorm	26710
▁capturing	26711
▁gem	26714
▁workshops	26718
rrell	26719
▁xu	26719
▁prominence	26723
ij	26724
▁testament	26726
▁smallest	26727
▁persuaded	26740
▁rna	26741
▁trainer	26745
▁chambers	26754
wr	26755
▁brom	26761
▁reef	26767
▁tasked	26770
pose	26775
▁freshwater	26781
▁ut	26789
▁nominal	26791
nagar	26793
▁secretly	26796
▁linking	26798
▁vid	26802
▁inspection	26805
▁buying	26814
▁digit	26814
anza	26821
▁everyday	26827
ching	26828
▁lunar	26832
▁cardiff	26837
▁monks	26839
▁sequences	26839
▁pt	26842
▁wat	26842
▁carlo	26847
rance	26847
▁arguments	26848
nick	26864
▁indies	26870
▁composers	26874
▁batt	26880
▁disappeared	26881
▁humid	26881
▁velocity	26881
▁br	26886
▁voltage	26889
gia	26893
lateral	26903
▁mold	26904
▁oriental	26907
▁somali	26910
word	26911
▁bradford	26919
cz	26922
▁acceptance	26923
▁allmusic	26925
▁fest	26927
som	26928
▁athens	26937
▁kyle	26937
▁surgical	26937
▁julius	26944
▁synonym	26945
▁brutal	26954
▁profession	26958
aud	26962
▁attractive	26968
▁afghan	26973
▁roller	26980
▁interrupted	26996
▁notre	26997
flex	26999
▁cope	27013
xx	27013
▁bir	27023
▁agrees	27031
▁subordinate	27032
▁tackles	27040
▁crashed	27042
▁consequences	27044
▁bour	27050
▁dissolution	27061
ulf	27061
▁enabling	27074
▁quint	27081
▁airborne	27083
▁hate	27083
▁yacht	27085
▁plateau	27086
▁meadow	27088
new	27091
▁struggling	27099
▁drums	27102
▁propaganda	27111
▁counted	27115
▁licence	27115
▁sullivan	27133
▁portfolio	27137
▁priority	27139
▁freed	27145
▁judgment	27145
flow	27146
▁swe	27147
ego	27148
▁kala	27148
▁nevada	27149
▁matri	27150
ppel	27152
▁walked	27153
rn	27157
▁retrieve	27161
▁cali	27166
▁nato	27169
▁abortion	27171
▁sketch	27171
wen	27179
amba	27190
▁mock	27192
▁screened	27194
▁halt	27196
▁portrayal	27200
▁observatory	27209
▁applying	27212
▁symbols	27222
▁pam	27223
▁uttar	27226
▁meal	27228
shot	27236
raj	27237
▁finite	27254
▁poster	27257
▁noticed	27273
cate	27285
space	27306
▁inquiry	27307
nn	27308
▁honey	27311
une	27314
ulus	27315
▁heaven	27325
▁mina	27327
oi	27327
▁mast	27329
▁occupy	27333
▁regent	27334
ude	27338
moto	27341
▁entity	27352
lat	27357
mbi	27357
nath	27358
▁bah	27364
▁gable	27368
▁incidents	27370
▁indianapolis	27372
▁alphabet	27373
▁dining	27375
nica	27375
naut	27376
▁encompass	27377
▁nice	27379
▁sed	27379
▁cuba	27381
▁mechanisms	27382
▁milwaukee	27391
▁laps	27394
▁ballot	27396
▁differential	27397
stock	27405
▁attraction	27406
▁sued	27407
▁ammunition	27421
▁synth	27422
▁lim	27444
▁confusion	27449
▁wesley	27452
▁pon	27453
▁accredited	27463
pid	27471
▁theodore	27472
▁reunited	27495
▁consecrated	27496
tone	27497
▁font	27501
▁firms	27502
▁irre	27509
▁berth	27511
▁monk	27512
▁circa	27516
cis	27519
▁jamie	27522
hon	27525
▁correction	27531
▁vaccine	27544
▁nord	27546
pple	27549
▁throwing	27556
▁generating	27557
nian	27569
zel	27569
wich	27582
▁plates	27585
▁reactions	27589
▁sai	27593
▁decisive	27603
compatible	27604
bid	27607
str	27607
▁clash	27633
wait	27634
cock	27639
imo	27639
▁lore	27649
▁enemies	27654
rel	27654
▁conquered	27661
▁leslie	27667
▁linda	27674
▁challenging	27678
▁competitors	27680
▁reflecting	27681
▁acute	27685
▁princeton	27685
▁enormous	27686
▁bab	27690
▁offense	27693
▁compromise	27694
▁hetero	27698
▁anonymous	27703
▁chang	27705
▁terra	27712
▁nico	27724
▁scho	27724
▁absent	27727
▁turbo	27729
▁pocket	27730
▁sox	27734
▁polymer	27739
lton	27745
▁lynn	27749
▁bread	27755
▁invention	27755
holm	27760
▁witch	27762
▁detachment	27763
▁antenna	27767
gam	27771
rl	27771
bone	27777
▁conviction	27780
▁pour	27782
▁fake	27788
▁eff	27802
nel	27811
▁prosecution	27816
▁vault	27821
▁eugene	27823
▁mara	27825
▁holdings	27831
▁regain	27832
▁equality	27842
▁loaned	27852
▁migrant	27853
enko	27855
▁estonian	27863
▁refuses	27865
▁diving	27868
issue	27873
▁snap	27879
rea	27886
▁relatives	27886
▁mercury	27887
▁translate	27890
▁bach	27895
▁consulting	27905
▁sudan	27906
▁triumph	27917
▁congo	27922
▁twitter	27925
dr	27935
▁raven	27939
▁monuments	27942
▁portraits	27944
▁barcelona	27952
▁erik	27956
▁conform	27958
▁kerala	27959
▁violin	27967
▁trailer	27970
▁crater	27977
▁billboard	27982
▁inc	27983
▁ltd	27994
last	27997
▁specification	28007
▁libraries	28009
▁bennett	28014
▁revision	28016
▁baronet	28017
▁observe	28017
▁uganda	28022
▁fried	28030
▁consequence	28033
▁staying	28034
▁hos	28044
print	28045
still	28050
▁instructions	28064
▁ceiling	28065
▁strictly	28065
▁ecclesiastical	28071
▁terrace	28072
▁hag	28074
▁dive	28077
▁synthesis	28077
▁intensity	28082
▁interval	28083
▁armor	28089
▁subtropical	28089
▁bala	28095
▁spotted	28096
▁gaming	28113
▁cement	28114
▁alma	28121
▁ellen	28121
▁whatever	28123
aging	28126
▁colours	28135
▁comedian	28142
▁deny	28142
▁subspecies	28145
▁witnessed	28154
exp	28158
inate	28161
▁vil	28166
berger	28167
▁pose	28168
▁hoping	28174
activate	28180
▁vs	28192
hang	28197
▁cyber	28213
▁joke	28213
▁sponsorship	28219
▁streams	28229
▁clergy	28235
▁blake	28238
▁chant	28244
▁wingspan	28253
oso	28258
▁reopened	28262
▁feud	28267
▁scorer	28268
▁granite	28272
▁easter	28273
▁exhibits	28273
wl	28277
▁sac	28279
▁hamburg	28281
▁panels	28284
▁trim	28285
▁hazard	28292
▁dale	28295
eon	28295
▁armoured	28301
▁westminster	28336
▁clare	28337
▁yuan	28337
▁sank	28343
▁dash	28344
▁baroque	28354
▁edgar	28367
▁herald	28370
▁moss	28370
▁reinforced	28372
▁casino	28379
▁furniture	28380
▁coordinator	28394
▁leased	28403
dp	28404
▁accommodation	28406
▁memoir	28407
▁eurovision	28408
▁vicinity	28409
▁ascend	28420
▁researcher	28433
▁analyst	28436
crat	28444
▁feli	28447
▁clarke	28451
insky	28452
▁rectangular	28455
hat	28463
zhi	28463
anti	28464
▁nasa	28471
▁pod	28482
▁embrace	28483
▁arsenal	28494
▁dropping	28498
▁salary	28500
▁jaw	28503
num	28509
▁alert	28514
▁jesse	28515
eus	28521
eck	28528
▁papal	28528
▁genera	28530
▁varieties	28532
▁mandatory	28537
▁mint	28541
▁ease	28553
▁fle	28563
▁retire	28579
held	28580
▁phenomenon	28584
▁rachel	28606
▁trademark	28607
weight	28608
▁yugoslav	28640
▁leicester	28642
▁apollo	28644
▁drawings	28653
▁crypt	28655
▁spelling	28669
▁clement	28673
▁prohibit	28674
▁tasks	28680
▁glenn	28686
hoe	28689
▁caroline	28692
▁marketed	28703
▁pradesh	28706
▁promising	28713
▁slopes	28715
▁evangelical	28719
▁fitz	28722
▁examined	28725
▁lighthouse	28725
▁particles	28727
▁starter	28727
▁emily	28736
▁stern	28745
▁voluntary	28745
▁conspiracy	28746
▁newton	28747
▁casa	28759
vic	28768
▁continuously	28769
▁investors	28771
▁narrowly	28773
▁christianity	28775
▁warned	28779
▁deutsche	28793
▁brahm	28798
comb	28802
uz	28802
▁rosen	28804
▁bust	28805
▁skull	28811
▁luxury	28815
▁vowel	28843
▁critically	28847
▁fragment	28854
▁reluctant	28854
yne	28854
▁jewel	28857
▁commercially	28860
▁cdp	28867
▁layout	28868
▁rubber	28868
gt	28872
▁venice	28873
▁revenge	28875
▁cecil	28880
▁membrane	28889
▁interactions	28896
▁leather	28896
▁wel	28906
itude	28909
▁sergeant	28913
▁accomplish	28922
rik	28928
ook	28934
▁cylinder	28935
▁mm	28937
▁bordered	28940
athi	28948
▁kang	28951
▁fbi	28960
▁aust	28961
▁beside	28961
▁hood	28969
▁prohibited	28974
bia	28975
▁dinner	28980
▁sabha	28987
▁projected	29005
▁surf	29006
▁dorsal	29010
▁considerably	29019
▁hitler	29019
▁jesuit	29021
▁derives	29024
sz	29027
▁chaired	29034
▁excessive	29042
▁thriller	29043
▁entries	29053
lit	29067
▁sti	29067
▁destroying	29070
▁cort	29075
▁undertook	29080
▁dru	29084
tron	29091
▁celebrity	29097
▁revolve	29099
▁predator	29104
▁disk	29108
rad	29111
pra	29119
▁temples	29119
▁invaded	29122
▁audiences	29125
▁boeing	29125
▁facade	29130
▁quant	29132
uru	29136
▁investigator	29137
thi	29139
▁supervisor	29150
▁procedures	29152
▁sack	29165
▁achievements	29176
▁malaysian	29177
▁julia	29178
▁ornament	29190
▁metre	29199
▁proclaimed	29200
▁humanitarian	29206
▁graves	29207
▁criteria	29212
▁melt	29212
ill	29219
▁farmer	29233
▁cl	29238
oper	29243
▁adviser	29246
▁comfort	29252
▁trigger	29262
▁brands	29264
▁electronics	29273
patri	29279
▁mood	29291
station	29296
▁brigadier	29298
▁crest	29299
▁punish	29299
▁clients	29301
▁nad	29304
▁width	29304
▁openly	29317
verse	29321
▁lum	29323
▁freshman	29326
▁decorative	29344
▁pronounced	29358
▁prussian	29359
▁combining	29366
▁premiership	29366
▁tract	29367
▁placement	29372
▁desired	29373
▁oakland	29373
▁spelled	29375
polit	29381
▁sudden	29382
mag	29387
▁lacked	29388
▁hint	29389
▁invested	29389
nese	29393
▁insight	29396
▁robot	29400
uro	29406
▁derivative	29409
▁stoke	29417
▁pregnant	29419
▁webb	29419
▁wol	29427
▁topic	29428
▁teeth	29430
▁teenage	29432
▁colored	29436
▁frog	29440
▁properly	29441
▁nc	29448
look	29449
▁insisted	29450
▁lover	29450
▁computers	29461
▁rebounds	29465
▁fusion	29471
▁broadcaster	29476
▁moments	29484
▁mull	29484
▁sheep	29490
▁arose	29493
▁baltic	29499
▁unsuccessfully	29507
▁vegas	29507
▁layers	29510
▁yankee	29518
▁cock	29524
▁dish	29526
▁flooding	29530
▁kumar	29531
▁stability	29534
▁hurt	29540
▁slight	29547
▁client	29548
▁spencer	29549
▁deployment	29562
▁tackle	29563
lene	29566
▁preceded	29574
▁grab	29578
▁remarkable	29580
▁bail	29591
▁propose	29593
▁cream	29598
▁presenter	29600
▁priests	29601
▁duchy	29609
iko	29611
▁performers	29613
▁lance	29616
kara	29625
▁files	29629
▁nobel	29629
▁disorder	29637
▁explorer	29641
▁ecological	29649
▁tau	29653
▁certification	29669
▁romania	29670
▁lyon	29672
▁calculated	29676
▁tampa	29681
▁ske	29685
dro	29687
▁supervision	29688
▁sculptor	29693
▁batted	29694
vet	29694
▁disabled	29697
glo	29697
▁generations	29702
▁accidentally	29703
▁thorough	29718
▁citizenship	29722
▁extraordinary	29730
vian	29733
khar	29737
aj	29741
▁cardinals	29742
▁scandal	29755
▁bryan	29758
▁maiden	29759
▁liner	29762
▁rounded	29765
▁sap	29766
▁taka	29772
fc	29773
▁nathan	29778
▁elsewhere	29804
▁devon	29812
ope	29813
▁chuck	29815
▁developer	29816
plication	29823
align	29861
phra	29865
▁equity	29866
▁tough	29867
▁overcome	29882
▁vicar	29882
▁fixture	29888
▁preference	29888
ech	29893
▁twist	29893
▁basal	29903
▁partition	29912
usa	29912
▁arrow	29914
▁krishna	29915
▁dealer	29920
▁deer	29924
holder	29932
▁estimate	29934
lith	29938
▁lauren	29942
▁visa	29945
▁punch	29964
▁operators	29978
▁guardian	29983
▁accounting	29984
▁burns	29984
shore	29990
▁proceeds	29993
tang	29993
▁lineup	30000
▁streaming	30006
cup	30013
▁kw	30026
▁explored	30033
polis	30041
▁discussions	30047
▁overlap	30047
▁chilean	30054
▁hawaii	30057
▁brass	30059
yang	30067
▁suburbs	30069
▁coral	30073
▁nigeria	30088
▁corridor	30096
▁prosecutor	30096
▁killer	30104
▁protagonist	30104
▁kai	30109
▁pm	30109
▁crop	30110
▁attribute	30113
▁arctic	30118
▁bounded	30120
▁vic	30123
▁cycling	30128
▁curtis	30130
▁deposits	30132
▁advertisement	30138
▁alive	30147
▁afl	30149
▁civilians	30150
tia	30159
▁organizing	30166
▁disrupt	30170
▁trunk	30173
▁solomon	30187
▁restrict	30188
▁skating	30189
kawa	30205
▁urged	30212
▁bren	30225
mail	30225
▁pig	30229
▁uprising	30230
▁senators	30243
▁rab	30246
encies	30249
▁eating	30250
etti	30252
▁sweep	30256
▁planted	30267
▁cou	30271
▁questioned	30271
▁peru	30272
▁utility	30272
▁highlighted	30300
▁vulnerable	30305
kle	30314
but	30320
▁dealt	30321
▁chorus	30322
▁wickets	30323
▁nominations	30324
gawa	30328
▁breath	30335
▁feeding	30347
▁bark	30357
cl	30361
power	30362
▁sep	30373
▁controlling	30376
▁boulevard	30382
▁crops	30385
▁exam	30389
▁nintendo	30389
cid	30400
say	30402
▁declare	30405
▁munich	30413
▁spear	30413
▁caps	30414
▁peaceful	30416
▁perception	30423
▁gur	30429
▁thailand	30430
▁logic	30445
▁ramp	30446
▁marker	30447
▁florence	30455
ogni	30459
▁ellis	30461
▁hung	30465
odo	30487
▁partnered	30502
▁reader	30513
▁kri	30515
▁politically	30516
▁truly	30520
bon	30522
load	30530
▁rivalry	30533
▁titan	30541
▁swift	30548
▁endorsed	30557
▁wireless	30557
izer	30565
▁ok	30570
▁plains	30580
▁cottage	30593
▁rou	30597
▁headline	30605
chester	30606
▁rushing	30610
▁warrant	30611
▁marginal	30619
▁activated	30629
▁trustees	30633
▁presenting	30642
▁clause	30665
▁bitter	30674
▁protecting	30678
▁bonn	30679
▁guarantee	30683
▁developers	30688
▁shrub	30689
df	30695
▁lend	30708
▁qing	30711
▁inhibit	30717
▁naturally	30725
▁viking	30727
▁delegates	30730
▁holland	30732
▁module	30736
▁fernando	30745
▁pledge	30759
▁restaurants	30759
▁charitable	30761
▁punt	30763
pper	30764
▁transmitter	30783
eu	30791
▁yama	30792
▁kurt	30795
igan	30796
▁configuration	30797
▁falcon	30799
▁om	30799
▁vinyl	30809
▁nancy	30818
rov	30819
▁segments	30828
▁spider	30833
▁cran	30835
▁dressed	30836
▁variants	30836
ste	30840
▁prevention	30842
▁wheat	30843
▁trips	30848
▁gerald	30851
▁ov	30858
▁aggregate	30861
▁gha	30864
og	30880
▁divorce	30881
▁authentic	30891
▁louise	30910
▁mural	30910
▁wagon	30910
▁contracted	30911
kers	30915
bha	30918
▁lessons	30921
▁assassination	30922
▁gather	30925
▁doug	30935
rill	30946
▁denis	30949
▁montgomery	30949
mouth	30955
▁goddess	30979
▁whale	30979
▁bran	30984
▁lucas	30984
▁watson	30985
▁confess	30990
nation	30990
▁kilometres	31001
▁spite	31010
emia	31012
▁analyze	31018
bili	31018
▁healthy	31019
▁loud	31028
▁elimination	31032
▁giovanni	31040
▁casting	31041
▁socio	31047
stead	31054
itarian	31055
▁prey	31067
▁submit	31072
▁pianist	31078
▁adrian	31084
▁neighbourhood	31086
ami	31094
▁adhere	31110
▁bind	31115
ii	31117
▁lithuanian	31120
▁maj	31127
litz	31153
▁marcus	31155
flu	31161
▁societies	31163
▁poorly	31174
▁descend	31175
▁resign	31195
▁habit	31210
▁copa	31212
▁emma	31218
bru	31226
▁fix	31229
▁pil	31230
▁kenneth	31232
▁armies	31237
▁torn	31241
hou	31245
▁shanghai	31248
▁spy	31258
▁flagship	31260
▁knock	31265
hawk	31272
oni	31278
▁storyline	31281
▁alberta	31285
▁phillips	31299
▁cooperative	31301
▁pha	31304
▁helm	31311
▁rendered	31314
▁introducing	31323
▁explosive	31338
appa	31351
▁messages	31351
▁sensitive	31378
▁dying	31382
iva	31386
▁imported	31393
▁ming	31393
▁advancing	31398
▁rape	31409
▁plaque	31411
▁arrangements	31428
aged	31430
▁chile	31440
▁bai	31451
▁probability	31454
▁depiction	31457
▁constituent	31459
▁physically	31459
▁modest	31460
▁nam	31461
▁gab	31464
▁palmer	31464
▁renovated	31475
▁bullet	31480
▁dirt	31483
▁ang	31497
▁panama	31497
▁tobacco	31500
▁doctoral	31502
▁casualties	31503
▁badge	31507
▁consistently	31508
▁lords	31526
otic	31530
▁thor	31540
▁ot	31542
▁devil	31554
▁mik	31558
▁loose	31559
▁lisa	31560
▁intersect	31565
▁cp	31584
▁investigated	31587
▁observations	31587
▁spectrum	31587
▁unofficial	31587
place	31589
▁ruins	31589
▁afghanistan	31606
▁preventing	31607
▁proximity	31613
▁ottawa	31634
▁directing	31648
▁brun	31653
▁arcade	31658
▁graphics	31671
▁pyr	31674
evo	31677
▁warfare	31678
▁subfamily	31683
▁enrollment	31691
▁mobil	31698
▁hd	31703
▁subdivision	31707
tell	31712
▁consent	31718
▁guided	31718
▁hatch	31720
▁badly	31721
▁institutional	31723
▁slam	31734
▁ling	31739
▁dot	31740
lier	31750
▁suggestion	31750
▁lectures	31758
▁punishment	31768
▁chat	31770
▁mtv	31777
▁torture	31781
▁cognitive	31785
▁curriculum	31791
▁assumption	31797
zza	31799
▁shak	31805
▁rivals	31814
▁aftermath	31818
▁favorable	31818
▁threats	31823
phor	31840
▁strand	31858
▁eliminate	31867
▁proposals	31885
▁aria	31888
▁endangered	31890
wall	31896
▁creature	31901
▁fiber	31908
▁sailor	31910
▁worse	31915
ox	31916
▁sche	31919
▁mack	31921
link	31923
eau	31930
▁peasant	31940
▁scal	31951
▁divorced	31957
bas	31967
hof	31974
▁fab	31989
pol	31997
▁purple	32006
▁rav	32007
ending	32009
▁polo	32009
ree	32013
bla	32023
▁scope	32023
▁grande	32041
▁compensation	32055
▁blast	32065
▁wallace	32065
▁anger	32072
▁beta	32074
▁statute	32075
shima	32079
▁wr	32084
mission	32086
▁norfolk	32092
▁dakota	32093
▁astro	32113
▁screening	32122
▁neg	32127
▁moor	32135
view	32144
▁shark	32150
▁farms	32153
▁fold	32154
▁enhanced	32157
tam	32158
▁undertaken	32162
ats	32164
▁specified	32171
▁conflicts	32176
face	32177
▁achieving	32188
▁tender	32202
▁conclude	32205
▁parameter	32206
▁adventures	32207
▁pandemic	32219
▁wie	32223
▁consolidated	32227
▁longtime	32230
▁spar	32231
media	32233
▁chronic	32242
▁survivors	32243
▁facebook	32244
▁cin	32247
▁roosevelt	32258
▁adequate	32271
▁commit	32282
▁workshop	32282
▁attain	32283
▁confidence	32288
▁crowned	32290
▁obtaining	32292
▁blade	32303
▁cameron	32318
▁kol	32322
▁evaluate	32324
▁maine	32324
▁pursuit	32331
lla	32333
▁jointly	32335
▁nh	32335
▁lobby	32347
ax	32354
▁aquatic	32360
lc	32362
▁heights	32364
▁runway	32368
bling	32372
dha	32374
▁knockout	32381
py	32381
▁blocked	32384
▁pho	32398
▁mach	32399
▁fol	32402
▁evident	32427
▁cart	32428
sworth	32437
▁mystery	32448
▁authored	32456
▁chin	32459
ichi	32462
▁venues	32462
▁barrel	32463
mato	32466
logist	32471
▁unveiled	32471
ffer	32473
▁predicted	32475
▁md	32480
▁slot	32492
▁knocked	32493
▁essay	32494
▁circum	32510
▁occasions	32510
▁rig	32513
▁decoration	32520
▁unified	32523
▁dame	32535
post	32537
tag	32540
▁lamp	32551
▁arguing	32563
▁fraud	32568
▁dense	32571
▁lighting	32572
▁capitol	32573
▁woodland	32575
itch	32593
▁evaluation	32594
▁conceived	32595
▁accompanying	32599
▁queens	32607
▁berg	32611
pass	32616
▁chapters	32618
ffe	32619
▁communicate	32620
▁explosion	32626
▁withdrawal	32642
▁activists	32647
code	32656
▁gustav	32694
▁ahmad	32700
▁tiger	32703
▁cabin	32718
▁followers	32720
▁sometime	32720
▁shots	32731
▁dogs	32736
ight	32749
▁revived	32755
▁pol	32764
▁syl	32765
▁scattered	32775
▁prisoner	32777
▁afford	32780
▁relegation	32803
▁owing	32821
▁postal	32829
▁denver	32830
endra	32830
commun	32843
▁juvenile	32862
rup	32862
▁marque	32865
▁songwriter	32865
▁singers	32867
logy	32868
▁auckland	32872
▁strait	32874
▁breach	32882
sect	32897
ios	32899
▁nationally	32903
▁filmmaker	32914
▁waves	32921
▁bau	32932
nar	32939
▁legally	32940
▁literally	32942
dam	32944
iff	32950
▁wellington	32950
▁valve	32959
▁mysterious	32960
▁colin	32967
vik	32968
▁bishops	32971
▁collector	32984
▁serbia	32990
▁olive	32998
▁grim	33004
▁reserved	33015
▁ahmed	33016
▁regulatory	33019
▁arise	33032
▁colon	33045
cop	33062
▁emigrated	33065
▁maker	33067
▁gin	33079
▁platinum	33090
▁abroad	33094
omo	33096
▁remind	33104
▁certainly	33107
▁canyon	33108
▁cleared	33121
roll	33130
▁toxic	33133
nova	33134
▁cruz	33139
▁diagnosed	33140
▁delegate	33143
▁dollars	33153
uf	33158
▁delaware	33171
▁passion	33176
eve	33183
▁monarch	33193
▁belle	33198
▁crow	33200
cat	33201
lea	33201
▁beau	33208
▁duck	33219
bourne	33236
▁afc	33241
▁harsh	33257
▁preceding	33258
uv	33266
▁stronger	33270
▁forty	33274
▁limestone	33281
▁acclaimed	33284
▁expelled	33284
▁magnitude	33288
▁edmund	33290
▁proceed	33297
▁zen	33306
▁unexpected	33310
▁hughes	33316
▁emmy	33360
direct	33363
▁embarked	33365
▁emerge	33367
▁watched	33393
▁referendum	33395
▁murphy	33397
▁tir	33397
thy	33399
▁screenplay	33402
cos	33404
▁descent	33418
▁audition	33420
city	33420
▁classroom	33428
ware	33428
▁playoffs	33439
▁necessarily	33441
▁advocated	33445
▁auxiliary	33451
▁banner	33451
▁alpine	33452
▁duration	33462
▁luci	33467
▁comprised	33485
▁cm	33504
rap	33505
▁refuge	33511
▁removing	33524
▁hometown	33526
▁textile	33544
augh	33551
▁exhaust	33568
▁octa	33576
▁constantly	33577
▁mandate	33577
▁amazon	33582
▁pride	33582
tig	33582
▁mario	33583
▁dec	33590
▁customer	33602
oh	33609
▁wan	33615
▁pitched	33624
▁withdrawn	33630
yama	33637
▁glad	33656
▁lens	33659
ug	33659
▁upgrade	33665
uck	33670
bc	33675
▁rai	33677
ended	33678
▁monday	33680
▁proven	33688
▁invest	33692
▁zhang	33701
▁phy	33708
uda	33726
▁crucial	33727
▁worker	33727
▁discrimination	33731
▁loved	33742
▁taste	33751
▁marshal	33766
▁lung	33767
▁bicycle	33773
▁gall	33773
▁decreased	33776
▁pete	33777
▁biblical	33782
▁thereafter	33789
▁wen	33789
▁harvey	33791
▁warriors	33792
arra	33798
icular	33798
issa	33812
▁argue	33815
▁pub	33831
▁politicians	33836
▁technological	33850
▁victories	33853
▁ole	33859
▁tap	33874
▁easier	33875
ever	33875
▁tornado	33879
▁kla	33882
▁deco	33883
▁intend	33887
▁egg	33890
▁appoint	33893
▁colonies	33896
▁advent	33912
▁shops	33914
▁doctors	33915
▁reconnaissance	33927
▁superintendent	33928
▁adoption	33935
▁tent	33952
para	33968
▁bowling	33970
▁inaugurated	33972
▁employer	33987
▁ib	33988
▁flame	33993
lyn	33996
▁believing	33997
▁absorbed	34016
hua	34016
▁med	34016
▁allocated	34020
▁atmosphere	34021
▁stefan	34038
▁towers	34054
▁cadet	34056
▁estates	34061
arm	34066
▁viv	34070
▁estimates	34081
▁underlying	34083
▁plaza	34103
▁considers	34109
▁condemned	34124
▁depicts	34130
▁seminary	34137
▁jacques	34156
▁airfield	34168
brook	34168
▁equally	34170
▁philosopher	34186
▁lutheran	34187
quet	34200
ional	34203
eva	34204
▁entertain	34208
▁butler	34225
▁rider	34227
▁diploma	34241
rr	34250
▁rational	34254
▁manhattan	34257
▁instant	34273
▁sediment	34276
▁altar	34277
gua	34282
▁rent	34302
▁recurring	34303
▁sv	34304
▁silk	34309
▁biology	34314
▁commentary	34320
▁efficiency	34321
▁privilege	34330
▁mani	34334
▁compositions	34341
▁ferdinand	34342
▁miguel	34342
▁interviewed	34343
▁tear	34344
▁eighteen	34346
▁ports	34352
▁transaction	34352
▁accomplished	34357
▁unity	34373
▁romance	34375
▁nigerian	34380
▁survival	34382
borg	34387
▁consideration	34387
▁globe	34394
▁hitting	34395
▁comparative	34405
▁findings	34408
▁irregular	34409
▁readers	34419
mun	34432
▁emp	34434
▁maternal	34442
▁lion	34448
▁manufacturers	34449
▁cheap	34452
▁tournaments	34463
▁excess	34469
▁archive	34471
▁yar	34472
ori	34477
▁filipino	34478
▁pace	34489
▁kho	34492
▁watching	34504
▁diseases	34508
▁airing	34514
▁convey	34525
▁atomic	34540
pla	34547
▁kre	34551
▁tac	34570
▁josh	34596
▁marathon	34611
▁excellence	34612
iser	34613
▁aesthetic	34617
▁occurring	34617
▁hus	34629
▁intent	34632
▁khal	34643
▁observer	34649
mil	34656
▁cc	34666
▁ratings	34674
▁stall	34676
▁madrid	34682
▁marcel	34683
▁hospitals	34687
▁biography	34688
▁jerusalem	34688
▁echo	34692
mis	34693
▁thrown	34693
▁illustration	34697
▁todd	34697
▁bassist	34713
▁organisations	34722
▁glacier	34723
▁replica	34727
iga	34730
▁indeed	34732
smith	34738
▁playstation	34739
▁programmes	34741
▁blu	34743
▁lok	34755
▁malay	34764
▁bike	34765
wo	34767
▁interactive	34781
lines	34781
▁stepped	34790
▁madison	34794
▁troop	34801
▁alumni	34821
▁mora	34823
titu	34825
▁lau	34837
▁circumstances	34846
static	34848
▁edwards	34849
▁collecting	34864
▁circulation	34866
nas	34870
▁handled	34898
iti	34910
▁depends	34922
▁snake	34935
▁maurice	34939
▁roth	34947
ash	34953
▁assembled	34957
▁sever	34973
▁krist	34982
▁presidency	34987
wind	34994
state	34998
▁specimens	34999
▁monster	35001
▁lights	35009
cene	35031
▁raz	35042
▁seriously	35046
▁stint	35068
▁arnold	35074
▁sli	35095
▁advised	35107
▁fal	35118
▁enforce	35126
▁lyn	35131
▁guidance	35142
▁volcanic	35151
▁wreck	35163
▁matrix	35169
▁monitoring	35173
▁voiced	35183
▁lying	35187
▁norm	35188
▁algebra	35194
lip	35219
▁populated	35226
▁healthcare	35232
plo	35234
▁beijing	35246
lets	35261
lee	35271
▁shoe	35271
▁carriage	35272
urge	35274
▁commentator	35287
▁archives	35295
▁depicting	35297
▁loyal	35297
▁rebels	35326
▁journalists	35340
▁dig	35346
▁teen	35364
▁brig	35370
ologi	35378
▁sacrifice	35380
▁java	35384
may	35384
▁marble	35386
▁consumption	35392
▁aaron	35401
▁graduation	35404
aga	35409
▁perry	35415
▁legendary	35422
▁pension	35422
zen	35436
▁taxes	35442
▁radiation	35456
▁franco	35469
▁hms	35488
▁torre	35491
▁chester	35492
▁chan	35518
ote	35535
▁surgeon	35536
vie	35543
▁knowing	35545
▁altered	35554
▁sie	35559
▁cuts	35565
▁hydrogen	35582
▁fiscal	35587
▁exceptional	35588
vor	35599
▁goalkeeper	35606
▁hungary	35609
▁bottle	35610
mini	35615
▁lor	35644
▁massacre	35644
▁shoulder	35652
▁emil	35689
▁virus	35713
▁requirement	35724
▁dancing	35731
▁mere	35735
▁exile	35736
ois	35743
▁antarctic	35744
▁homo	35746
▁axis	35754
eno	35763
▁phoenix	35768
▁revolt	35771
▁accordance	35779
▁sits	35782
▁rainfall	35786
▁therapy	35788
▁hack	35791
▁supporter	35800
firm	35805
▁independently	35809
▁cr	35814
▁icon	35818
boy	35821
▁rom	35828
ees	35840
▁afternoon	35843
▁calendar	35856
▁cel	35858
▁automatically	35859
yev	35861
kon	35904
ante	35907
▁eve	35908
▁rector	35920
▁opposing	35925
▁colleagues	35933
▁sher	35944
▁nineteenth	35952
▁riders	35957
figur	35959
▁laser	35976
▁reject	35986
pal	35988
▁eagles	35990
▁franz	36001
▁freestyle	36003
▁provisional	36009
vy	36013
▁swing	36020
ject	36024
onia	36025
▁finalist	36027
▁nursing	36040
▁finland	36041
▁innovative	36041
▁magazines	36045
rous	36065
▁laura	36066
▁hopes	36078
dh	36082
▁react	36083
▁informal	36095
▁athlete	36105
▁clinic	36107
elia	36113
▁relate	36116
▁reserves	36117
berry	36126
▁isaac	36142
▁instructor	36163
▁patriarch	36169
▁distant	36170
▁gli	36174
▁stones	36178
▁sw	36182
olo	36194
eur	36211
▁hammer	36215
▁mature	36222
▁philosophical	36228
▁blog	36231
▁patriot	36237
▁remnant	36242
▁cork	36253
▁detect	36262
▁sheffield	36265
▁lil	36276
▁strange	36296
▁presbyterian	36299
iah	36319
▁boarding	36324
▁citation	36328
▁varied	36330
▁explanation	36337
wal	36344
▁obama	36345
▁swan	36369
▁mann	36373
▁succeed	36379
▁stroke	36384
▁hampshire	36386
▁frontier	36400
rain	36400
▁jamaica	36427
oka	36427
chel	36439
rant	36442
▁auction	36447
▁feels	36448
▁impressive	36451
▁referee	36451
▁examine	36456
▁dust	36464
bird	36465
▁cox	36473
▁stakes	36473
▁stolen	36484
▁nat	36495
mill	36497
▁syria	36497
▁centered	36507
▁measuring	36510
▁struggled	36519
▁publish	36535
ret	36548
▁preparing	36552
▁barb	36560
▁danny	36573
▁hardware	36580
▁spots	36580
▁tune	36586
▁mort	36589
▁kids	36614
▁promotional	36614
▁julian	36631
▁pastor	36644
▁consensus	36652
▁journalism	36657
una	36662
▁mei	36670
▁christians	36672
▁cul	36696
▁grid	36700
▁involve	36714
works	36721
▁bang	36732
▁sig	36732
▁employee	36734
▁stein	36737
▁tale	36738
▁statements	36740
▁understood	36741
▁shaped	36751
▁excavation	36753
ograph	36758
▁keen	36760
▁skill	36764
▁kate	36766
▁ronald	36773
▁self	36780
▁kitchen	36781
▁options	36783
chin	36788
kie	36789
▁sheriff	36795
▁showcase	36805
▁rus	36828
shaw	36831
▁conquest	36848
▁hosting	36848
▁identification	36865
▁contracts	36869
duction	36872
▁impressed	36877
▁renaissance	36878
ista	36879
▁kid	36882
ense	36894
▁privately	36904
▁server	36912
▁rip	36926
sam	36933
▁routine	36934
▁oscar	36936
▁indonesia	36940
▁navigation	36944
▁recruit	36950
▁secular	36976
rock	36977
▁roberts	36982
zzo	36996
▁raymond	36999
▁displays	37003
▁pitt	37004
▁cincinnati	37008
▁personally	37008
▁inclusion	37010
▁imposed	37012
▁verb	37026
train	37045
▁recreational	37051
▁nikola	37067
▁nephew	37074
▁delhi	37078
ien	37078
lough	37083
▁viola	37092
▁shrine	37097
▁practiced	37121
▁behaviour	37138
▁modification	37158
▁abdul	37188
▁seventeen	37194
▁larvae	37201
▁streak	37203
yr	37211
▁concepts	37213
▁defect	37215
type	37222
▁friedrich	37240
▁upset	37251
horn	37255
▁twentieth	37260
▁fate	37278
▁nicknamed	37288
▁breaks	37292
claim	37295
▁suppress	37296
▁integral	37307
▁interpreted	37312
▁collins	37313
▁nationwide	37317
lov	37319
▁kills	37326
▁maps	37330
▁taiwan	37330
▁seeds	37335
▁tr	37340
▁succession	37344
▁systematic	37353
▁crush	37376
▁varies	37386
▁aggressive	37395
▁arrive	37398
▁pilots	37398
▁filter	37399
▁plum	37399
▁lev	37400
▁provisions	37405
nc	37408
▁motorcycle	37410
▁sony	37411
▁columns	37418
▁rogers	37420
▁wai	37429
▁delegation	37450
▁linguistic	37450
▁shallow	37454
▁targets	37457
▁poison	37459
▁upgraded	37465
▁quoted	37480
▁outline	37487
▁cannon	37494
▁tyr	37502
▁machines	37508
▁blend	37520
▁lei	37522
▁ea	37530
▁naming	37531
▁samples	37531
▁thermal	37531
▁illness	37532
▁democracy	37536
▁mate	37547
▁bypass	37555
▁ghana	37559
hurst	37569
▁impression	37581
▁herb	37607
▁rum	37613
▁grandson	37625
▁broadcasts	37628
▁update	37630
osa	37634
▁suspect	37645
▁gig	37647
▁noise	37671
▁procedure	37678
▁solely	37697
▁boom	37701
▁bak	37704
▁exploration	37713
▁hail	37716
▁ancestor	37723
▁nominee	37725
▁rapper	37725
▁expense	37728
▁mentor	37730
▁paying	37733
▁acknowledged	37742
▁tactical	37742
▁geological	37746
▁knights	37770
▁automobile	37772
▁binding	37772
cle	37772
▁alaska	37773
▁lgbt	37773
ito	37783
▁variations	37783
qual	37798
▁surrender	37810
bil	37834
▁discontinued	37841
▁feelings	37842
▁stuart	37849
▁punjab	37858
▁encountered	37869
▁surprise	37870
▁doctrine	37871
▁google	37874
ters	37876
ave	37882
▁copyright	37890
▁detective	37893
▁experts	37899
asse	37912
▁rico	37915
▁yorkshire	37929
▁mig	37934
sar	37935
▁cli	37945
iest	37952
▁diversity	37953
hand	37955
▁chen	37956
▁listen	37967
▁reforms	37973
▁kath	37983
tas	37991
▁bold	38000
▁virtually	38005
▁hole	38008
▁bloom	38013
▁signals	38022
▁transported	38025
▁beneath	38027
▁fifty	38028
mination	38030
▁affair	38037
yu	38042
▁sick	38043
▁julie	38046
jiang	38063
▁striking	38075
▁cyclone	38081
hood	38092
▁talking	38094
▁lease	38097
▁empty	38108
▁arrives	38114
▁burning	38126
▁rely	38126
▁patch	38128
▁marvel	38156
▁sco	38178
▁gua	38179
▁proceeded	38179
▁harvest	38199
dri	38215
▁carved	38216
▁equi	38220
▁governed	38228
▁registration	38229
▁joy	38230
ode	38240
▁tommy	38246
ison	38262
▁conductor	38269
▁shri	38273
▁staged	38288
▁invented	38297
▁gregory	38298
▁opponent	38312
▁prompted	38322
▁guinea	38330
▁gala	38331
▁separation	38337
▁crack	38342
▁varying	38348
▁sau	38353
▁stanford	38365
▁stops	38371
▁impossible	38375
▁appeals	38380
▁exterior	38389
▁divine	38391
▁confirm	38392
▁leak	38405
gging	38408
▁founders	38420
▁architects	38425
▁refugees	38426
▁compact	38433
▁criticised	38438
atic	38441
▁cruiser	38447
▁horizontal	38452
awa	38459
▁quit	38463
▁customs	38464
▁midland	38466
▁enterprise	38467
▁predecessor	38474
▁trick	38479
▁bug	38480
▁brave	38508
ae	38517
cro	38519
▁reveal	38520
▁listing	38525
▁allegations	38528
▁drill	38533
▁mansion	38537
▁woods	38545
▁lamb	38556
assi	38586
▁categories	38586
▁slaves	38610
▁brisbane	38618
▁feminist	38625
▁namely	38626
▁footage	38634
▁sean	38652
▁dominican	38667
akh	38676
▁faster	38676
▁minimal	38681
▁conducting	38700
sville	38721
▁slate	38729
▁deeply	38749
▁faces	38750
▁array	38754
▁occasional	38754
▁quiet	38785
▁hoped	38800
▁contributor	38826
▁speakers	38841
scribe	38846
reg	38855
aba	38868
▁flora	38871
▁exhibitions	38873
▁vancouver	38878
oe	38884
▁corruption	38892
▁backed	38917
▁boost	38917
▁smart	38926
▁difficulties	38932
rina	38935
liga	38947
▁depot	38965
▁handling	38966
ridge	38967
▁fortune	38976
▁integration	38976
chrom	38983
▁transformation	39002
▁sham	39007
▁cater	39011
lling	39045
▁um	39070
▁departments	39073
▁interface	39074
▁mentions	39094
▁portugal	39097
▁fault	39100
▁abraham	39110
▁beer	39112
pat	39114
▁wrestler	39154
▁photos	39157
▁suddenly	39158
▁birthday	39162
bat	39169
▁reed	39179
▁lifetime	39182
cott	39189
fully	39191
▁interpret	39193
▁rode	39195
▁veterans	39196
▁clip	39205
▁manufacture	39212
ump	39219
▁mai	39234
▁belgium	39240
▁vest	39251
dou	39253
▁oxygen	39265
▁withdraw	39280
ises	39300
▁malaysia	39301
▁brooklyn	39311
▁inhabited	39324
▁midfielder	39325
mine	39335
▁optical	39336
llen	39339
▁giants	39346
▁mild	39354
▁napoleon	39372
▁pages	39375
rus	39375
▁newcastle	39403
▁pakistani	39409
▁permanently	39436
▁protocol	39454
bach	39459
▁suburban	39466
▁experiments	39475
▁circular	39486
▁spaces	39491
▁provision	39503
▁recreation	39511
▁vale	39515
▁grants	39519
▁psychology	39522
eli	39529
▁notion	39530
▁smoke	39555
ago	39563
▁wonder	39566
mur	39580
▁guil	39584
▁legion	39596
kel	39600
▁extinct	39605
▁topped	39611
acle	39619
▁gates	39619
plane	39647
▁tanks	39657
▁slip	39661
▁ic	39662
▁maz	39662
▁proteins	39664
aunt	39671
▁convince	39678
▁inspector	39698
▁photographer	39711
▁thunder	39711
▁predict	39715
▁kilometers	39717
▁vietnamese	39732
▁organize	39742
▁kor	39747
▁beck	39757
▁soap	39795
▁luke	39809
▁sail	39814
▁comments	39817
fold	39836
▁remember	39840
▁transformed	39841
▁petr	39846
▁admission	39851
▁jer	39857
▁camps	39869
▁realized	39869
▁purposes	39870
▁coins	39873
▁constitute	39877
▁nicola	39883
tech	39890
▁interaction	39899
nish	39905
ously	39919
▁ago	39931
▁honored	39941
▁interesting	39958
▁legacy	39969
▁strengthen	39975
▁imprisoned	39986
than	39989
nis	39996
▁strain	40008
▁portland	40020
lot	40024
▁maur	40052
▁stab	40058
▁boot	40062
▁justin	40062
▁witness	40075
odor	40084
▁authorized	40090
pha	40093
▁victim	40094
▁keyboard	40107
▁fluid	40114
▁sandy	40125
▁remembered	40127
troph	40127
▁epic	40128
▁fortress	40130
▁infection	40145
▁interim	40157
quen	40163
▁buenos	40179
los	40188
▁recall	40203
▁kiss	40204
▁substance	40211
▁cuban	40220
▁travelling	40223
front	40234
bie	40235
▁consultant	40235
▁sol	40236
▁terrorist	40237
▁vladimir	40237
▁kenya	40239
▁announcement	40246
▁bulk	40248
▁seized	40261
▁airlines	40268
▁obvious	40275
itis	40278
▁bases	40296
▁perspective	40300
▁confused	40301
▁pursued	40304
▁traditions	40310
▁assignment	40311
▁averaged	40316
▁simultaneously	40318
▁plantation	40330
script	40344
pon	40356
▁chronicle	40359
▁rhythm	40368
▁regardless	40392
jun	40401
▁cliff	40409
▁yi	40414
▁creator	40428
▁expanding	40428
▁suffer	40439
tting	40448
sted	40466
das	40477
▁pie	40478
graph	40485
▁nepal	40501
▁parker	40501
vig	40509
▁targeted	40518
▁cruise	40526
▁hudson	40529
▁throne	40533
▁restrictions	40534
key	40535
▁turner	40543
bes	40551
▁dialogue	40565
▁theories	40579
▁marian	40580
▁internationally	40585
▁arkansas	40597
osis	40607
▁bert	40608
▁switzerland	40610
▁mars	40611
▁conjunction	40620
nz	40626
▁fail	40627
▁fulfill	40635
▁solutions	40637
now	40639
▁closest	40643
▁coincide	40669
▁tours	40678
▁abolished	40682
▁eddie	40692
▁migration	40698
▁sequel	40709
ddy	40711
▁scientist	40723
▁drag	40724
card	40727
▁exploit	40741
▁carr	40746
▁gauge	40750
▁backing	40761
▁recon	40784
▁fisher	40805
▁buses	40814
▁clerk	40817
▁cub	40819
ire	40820
▁disbanded	40823
▁eagle	40824
▁rotation	40843
▁flowering	40855
▁lone	40857
vul	40861
▁writings	40887
wn	40889
▁leeds	40918
▁fairly	40921
▁concentrated	40948
ila	40948
hor	40960
aw	40962
▁otto	40963
enburg	40985
▁anime	40992
▁payment	40993
▁psycho	41005
guard	41009
▁ear	41018
▁suggesting	41020
▁rib	41024
emp	41025
▁scan	41034
▁renewed	41036
▁suspected	41044
▁geographic	41045
▁bearing	41073
▁liberty	41094
▁potentially	41127
▁alpha	41130
▁assists	41139
▁georgian	41140
▁jefferson	41144
▁brings	41157
▁stake	41157
▁favourite	41163
▁campaigns	41164
▁manages	41176
▁adelaide	41179
▁receptor	41188
▁marsh	41193
▁discovers	41194
▁gram	41195
▁chal	41196
▁slo	41200
▁kas	41202
▁shorter	41216
▁ou	41217
▁vin	41220
▁clinton	41225
app	41237
ivo	41237
▁cop	41238
▁divide	41238
pul	41243
tribu	41245
▁stored	41246
▁aerial	41253
▁conversation	41257
▁gilbert	41290
▁pupils	41320
een	41327
▁sensor	41334
▁bridges	41342
▁sword	41381
hall	41389
▁elaborate	41401
ifies	41409
tail	41412
▁utah	41414
▁hook	41435
▁insert	41441
hol	41442
ics	41442
box	41446
hold	41448
▁ukraine	41451
▁lesser	41454
▁coordinate	41458
▁enabled	41460
▁petro	41468
dian	41470
▁albanian	41497
▁repeatedly	41507
▁blo	41528
▁graph	41538
▁ranges	41575
▁maintains	41581
▁sustainable	41583
tian	41585
▁solve	41625
▁hamlet	41626
▁til	41633
▁guests	41634
▁ful	41637
aro	41643
▁mirror	41649
▁adjust	41655
▁muslims	41659
▁drinking	41710
▁occasion	41719
▁democrats	41727
▁gau	41738
▁coin	41754
▁improving	41762
▁suspension	41762
▁administrator	41772
▁difficulty	41774
▁influences	41778
▁reformed	41780
▁acquire	41788
▁medi	41791
▁denmark	41794
▁friday	41795
▁tributary	41808
▁topics	41820
▁interviews	41822
pel	41824
▁zoo	41824
▁lp	41832
▁bul	41847
▁sid	41859
▁barrier	41862
▁severely	41878
▁faction	41890
▁yan	41891
away	41898
▁merely	41907
▁costume	41909
▁heavyweight	41910
▁banking	41912
▁orleans	41920
▁dubbed	41926
▁entrepreneur	41944
prov	41947
▁holder	41954
▁firing	41955
▁reviewed	41972
▁festivals	41983
▁rangers	41994
▁extract	42011
▁infant	42014
▁bis	42021
▁yale	42022
lift	42027
▁enlisted	42035
▁comprising	42043
▁fastest	42044
▁tal	42046
▁fatal	42049
▁pul	42053
▁prices	42062
▁manifest	42065
▁hai	42071
▁strict	42074
▁fighters	42077
▁improvements	42077
phone	42081
gun	42097
▁proof	42098
▁walt	42104
▁celtic	42109
▁din	42123
chy	42131
▁database	42133
▁pitcher	42172
▁neil	42180
▁reverse	42211
▁dissolved	42219
▁dub	42224
▁manuscript	42229
▁sailing	42239
▁beaten	42248
▁electron	42254
▁descendants	42266
▁grandfather	42275
rat	42282
path	42284
▁parade	42292
▁brook	42297
▁afterwards	42299
▁variation	42308
▁bore	42320
▁shifted	42323
▁clothing	42352
▁levi	42355
▁legs	42360
▁addressed	42368
▁stri	42375
cli	42376
▁roster	42380
▁coffee	42392
▁outcome	42395
▁finger	42425
aya	42428
▁gathering	42441
ches	42452
▁danger	42462
▁headquartered	42478
▁owen	42492
▁resist	42501
▁grades	42517
▁honours	42522
lig	42522
ew	42533
▁richmond	42545
tum	42548
iel	42558
▁hell	42586
nov	42597
▁releasing	42603
▁tigers	42609
▁dennis	42625
▁receiver	42633
▁milan	42634
▁tons	42639
▁assert	42648
▁approaches	42663
lli	42665
▁upcoming	42674
rect	42681
pop	42691
ttle	42696
▁lloyd	42717
▁neu	42722
esh	42727
▁gospel	42727
▁lac	42730
▁connecticut	42753
▁proportion	42762
▁marco	42765
fall	42770
grad	42775
▁sec	42778
ama	42788
▁keith	42791
▁successive	42794
▁significance	42812
▁logo	42823
bri	42825
▁serie	42829
▁wilhelm	42839
lent	42850
▁aspect	42853
gno	42862
▁else	42870
cycl	42871
▁harrison	42888
▁eggs	42937
▁pairs	42937
▁mixture	42945
▁chancellor	42947
▁gy	42952
▁lecturer	42964
▁colors	42966
vat	42971
avi	42997
▁ip	43007
▁boss	43014
▁punk	43016
▁enhance	43020
▁hut	43032
▁maxim	43042
▁murdered	43048
▁quantum	43048
▁grammy	43055
▁battles	43062
▁argentina	43077
▁missionary	43088
▁dol	43098
▁challenges	43111
bor	43121
▁promised	43174
▁ultra	43182
▁interact	43188
▁reconstruction	43190
▁praise	43196
▁regulation	43200
▁complement	43201
▁demands	43211
gre	43220
anga	43223
gui	43225
▁disaster	43228
▁bog	43242
borough	43249
▁pedro	43260
▁preservation	43262
▁rookie	43281
ress	43284
▁demanded	43291
▁citizen	43306
▁grain	43315
▁photograph	43320
▁travels	43325
▁allies	43327
rt	43340
▁ox	43354
▁riot	43358
▁andrea	43383
gram	43402
quin	43410
▁artwork	43416
via	43430
▁coaches	43437
▁activist	43441
etta	43447
▁arg	43450
▁updated	43475
▁sprint	43483
lash	43487
▁liu	43497
▁scout	43506
▁nun	43514
anna	43525
lle	43539
▁prestigious	43554
rist	43567
▁bout	43576
▁dependent	43577
▁stu	43578
▁drain	43593
▁lions	43624
▁mainland	43632
ender	43645
roy	43647
▁ultimate	43653
ides	43654
ific	43654
▁deposit	43659
▁autumn	43677
▁kara	43683
chan	43691
▁embassy	43709
▁ralph	43738
▁pond	43743
▁larry	43760
▁councillor	43761
▁observation	43766
▁vincent	43769
▁boxing	43782
▁volleyball	43782
▁belong	43783
▁convoy	43784
▁fallen	43791
▁bobby	43797
▁ng	43804
▁ernest	43815
▁harold	43833
▁knee	43838
▁discipline	43842
▁lecture	43843
▁heading	43851
▁admit	43859
▁dancer	43859
▁mau	43861
▁jin	43863
▁usage	43863
oon	43886
▁tissue	43894
▁manufacturer	43899
▁cord	43907
▁stationed	43927
▁symptoms	43936
▁voyage	43938
lain	43948
▁yang	43950
▁glasgow	43958
ident	43965
yard	43972
ander	43982
▁zero	43986
▁dev	43991
▁locomotive	43991
▁patterns	43991
▁correspond	44004
cies	44008
ovich	44011
▁retiring	44015
▁violation	44027
heim	44047
nk	44048
like	44098
▁documented	44120
▁terry	44123
▁commons	44134
▁kay	44148
▁assume	44165
int	44165
▁collapse	44174
had	44187
▁mos	44196
▁sending	44215
▁argument	44224
▁ordained	44228
▁bend	44234
▁invitation	44236
▁grove	44237
▁looks	44237
▁forcing	44252
▁diesel	44255
▁tribal	44256
▁hebrew	44257
▁tram	44275
ched	44307
▁relay	44311
▁breast	44314
▁kirk	44314
▁technologies	44314
▁attendance	44323
▁businessman	44333
cum	44339
▁requiring	44351
▁thinking	44354
▁detail	44355
▁similarly	44358
▁restore	44371
▁numbered	44388
▁derby	44390
▁abandon	44394
▁allegedly	44465
▁whi	44465
▁nurse	44470
▁iraqi	44473
▁earthquake	44474
▁wore	44484
▁acres	44487
▁airline	44489
lands	44498
▁hind	44519
▁mitchell	44565
hy	44568
▁bud	44603
▁destination	44605
▁vienna	44624
boat	44637
▁batting	44660
▁bengal	44674
▁argues	44683
▁altitude	44685
▁austria	44713
▁rebel	44719
▁engagement	44759
▁manuel	44760
▁evil	44782
▁familiar	44793
▁wound	44798
▁catherine	44802
dell	44812
rah	44816
▁drink	44820
▁fewer	44830
▁handed	44853
▁mou	44871
▁scores	44879
▁eventual	44891
▁kun	44898
bell	44947
▁muscle	44951
hav	44984
▁personality	44985
▁jail	44989
▁repeat	44992
▁cutting	45033
▁friendship	45035
▁renovation	45035
▁esp	45036
▁volunteers	45050
▁brad	45052
▁guild	45055
▁toll	45056
▁fabric	45059
▁evans	45061
▁ms	45061
▁ensemble	45069
▁fellowship	45072
▁threw	45073
▁rebellion	45074
▁crimes	45075
ock	45078
▁farming	45080
▁printing	45085
▁steven	45106
▁rama	45107
▁escaped	45134
▁lit	45138
▁reviewer	45153
▁talks	45169
▁microsoft	45174
▁kel	45189
▁fee	45201
▁herbert	45267
▁doors	45284
▁jose	45287
▁prevented	45287
▁analog	45291
▁objective	45291
▁ras	45299
fre	45312
▁daughters	45326
▁bone	45338
test	45346
▁emerging	45367
▁universe	45368
▁saints	45372
▁reflected	45377
▁stick	45388
▁gir	45413
▁leo	45418
eth	45423
▁unsuccessful	45431
▁acoustic	45432
▁deck	45435
▁greece	45452
rod	45456
▁portions	45464
▁anglican	45474
▁indonesian	45480
▁challenged	45492
▁mak	45503
▁chemistry	45512
▁flash	45513
lick	45546
▁vocalist	45550
▁prayer	45554
▁considering	45560
las	45568
▁au	45576
tti	45579
▁barbara	45580
rama	45583
▁aims	45608
▁trio	45608
▁arabic	45620
▁texts	45622
▁raja	45640
tina	45640
▁gothic	45643
▁welfare	45652
▁curve	45670
▁gran	45694
▁nickname	45698
lio	45704
▁movies	45725
▁paint	45728
▁wy	45732
▁rough	45742
▁cow	45743
▁destroyer	45753
▁photographs	45757
▁craig	45763
zh	45789
▁mcg	45794
▁investigate	45818
▁presentation	45819
▁extends	45834
▁aside	45848
▁indians	45855
▁og	45875
▁renowned	45877
▁recovery	45884
▁efficient	45894
▁relating	45902
cious	45908
mac	45909
▁bombing	45915
▁oliver	45920
ult	45923
▁vector	45930
▁recalled	45938
▁caribbean	45945
▁boundaries	45951
▁croatian	45965
vas	45992
mitt	45995
▁cole	46022
bre	46038
dict	46059
▁veteran	46062
▁ministers	46066
▁limits	46076
etic	46084
▁jerry	46092
▁gaining	46103
▁editions	46122
▁aboriginal	46132
▁thai	46136
▁vital	46137
▁episcopal	46168
▁adventure	46174
lect	46174
ute	46189
▁ble	46191
▁hypo	46202
▁flights	46212
▁amounts	46234
▁photography	46245
▁azerbaijan	46250
are	46257
▁wire	46262
▁channels	46268
▁reservoir	46268
▁merit	46275
▁viewers	46285
▁demon	46290
▁militia	46290
▁slowly	46294
▁locomotives	46304
ught	46332
▁parking	46333
▁putting	46350
▁instruction	46375
▁oral	46382
▁beauty	46384
▁sleep	46385
▁ballet	46387
▁matters	46393
▁worn	46414
▁expensive	46426
ering	46431
▁bristol	46436
▁sheet	46458
▁thirteen	46469
▁devi	46496
▁sustained	46500
▁polar	46511
▁perceived	46522
▁bible	46535
▁animation	46543
▁marking	46551
▁platforms	46559
▁actively	46566
▁wet	46568
▁thereby	46571
▁cattle	46605
▁operator	46608
▁methodist	46613
▁arrangement	46618
aa	46622
▁vis	46624
▁breed	46629
▁burned	46640
▁opponents	46640
▁chip	46642
▁mess	46651
▁explain	46656
nam	46658
▁weapon	46660
▁johann	46669
▁decisions	46675
▁releases	46679
▁literacy	46684
▁asking	46685
non	46686
▁pac	46687
▁algorithm	46731
▁intervention	46759
▁variant	46771
▁awareness	46796
▁prototype	46796
▁canon	46834
▁cooper	46842
▁companion	46848
▁liber	46851
▁consistent	46855
▁underwent	46880
▁wool	46885
gin	46898
▁injuries	46913
▁attitude	46916
▁honors	46924
▁explains	46947
▁reward	46959
ball	46967
▁aboard	46970
▁sierra	46980
▁settlements	46984
▁theoretical	46985
fish	47008
▁choir	47014
▁mosque	47039
▁demonstration	47057
▁rot	47070
▁radar	47071
▁ritual	47072
▁municipalities	47081
▁commerce	47089
▁governing	47094
▁traveling	47105
▁sharing	47108
▁improvement	47109
▁agencies	47118
▁buffalo	47122
arch	47130
▁import	47140
▁ted	47145
bol	47152
▁intense	47164
▁measurement	47165
kha	47174
▁esc	47175
ben	47181
▁abstract	47189
some	47205
▁focusing	47214
▁tab	47228
lian	47232
▁extending	47262
▁heath	47262
gas	47263
▁visits	47275
▁austin	47281
▁decree	47281
▁peer	47283
▁input	47287
▁incorporate	47297
▁rocks	47302
▁birmingham	47303
▁delta	47308
▁magnetic	47314
▁ticket	47334
law	47344
ali	47374
▁resource	47375
eller	47381
pot	47389
▁shipping	47392
▁declaration	47406
▁vel	47443
▁tha	47449
▁rolling	47452
▁flank	47470
ening	47481
▁flee	47505
▁spur	47512
▁mud	47513
▁convinced	47523
▁waiting	47523
▁flower	47554
fur	47558
ova	47558
▁democrat	47569
▁attacking	47571
▁maintaining	47588
▁dealing	47603
gh	47603
▁commanding	47605
position	47646
▁permitted	47651
ima	47671
▁hide	47674
▁burial	47679
▁regulations	47709
▁drugs	47714
▁steep	47731
▁neutral	47747
▁ghost	47767
▁quarterback	47774
cell	47776
▁meat	47778
fire	47780
▁exactly	47797
▁robb	47799
kes	47829
mba	47831
▁harbour	47838
▁residing	47840
▁doctorate	47845
▁saved	47868
▁demonstrate	47878
▁execution	47881
cil	47887
fr	47897
▁neck	47900
▁commitment	47911
▁drivers	47918
▁gabriel	47939
▁revised	47949
▁competitions	47964
gus	47989
▁ordinary	48006
▁winds	48024
▁sounds	48034
▁styles	48038
▁alabama	48039
bro	48041
ole	48046
feld	48048
len	48075
gri	48081
▁reside	48082
▁aware	48090
oy	48106
▁garrison	48113
▁commemorate	48115
▁portray	48121
▁luc	48129
▁breeding	48156
▁ven	48162
▁soldier	48190
char	48201
▁palestinian	48209
▁dome	48217
▁strat	48258
▁immigrants	48274
▁affiliate	48310
▁resignation	48325
▁recruited	48345
▁periods	48359
▁feeling	48368
▁telling	48383
▁trap	48389
▁gathered	48392
▁sav	48410
note	48413
lf	48414
ural	48424
▁grammar	48441
▁essentially	48442
▁combine	48444
▁rocky	48444
enti	48447
anda	48455
gle	48462
▁charts	48490
▁enters	48497
fort	48498
▁spi	48511
▁lawsuit	48515
▁sca	48537
cri	48544
▁neighbouring	48545
nia	48546
▁shadow	48550
▁sponsor	48552
▁sessions	48570
▁emi	48576
▁historians	48578
▁carol	48603
▁mask	48612
▁carries	48620
cit	48622
▁mills	48644
▁compound	48653
▁leonard	48667
▁charlotte	48668
▁sala	48681
▁liberation	48697
▁exceed	48698
illo	48718
▁robinson	48719
▁volumes	48769
▁youtube	48771
ctu	48783
bl	48805
▁settle	48805
aire	48810
▁hugh	48817
ele	48822
▁doubles	48844
▁jen	48861
▁administered	48869
▁helicopter	48873
▁torpedo	48880
▁forum	48882
▁interchange	48912
uli	48923
▁rosa	48928
▁measured	48931
▁publisher	48932
▁quad	48943
▁ul	48949
▁sym	48952
▁trials	48954
▁load	48955
rk	48962
▁predominantly	48966
put	48968
ick	48972
▁genes	48990
▁vary	49029
▁connections	49047
cap	49056
▁southwestern	49079
zhou	49082
▁temporarily	49100
▁blind	49102
▁wage	49127
▁comment	49139
▁av	49141
▁sm	49161
▁psychological	49170
▁lind	49180
▁funeral	49181
▁customers	49190
▁cass	49192
▁temperatures	49206
▁collegiate	49211
▁cab	49230
▁geographical	49274
▁pearl	49279
▁doubt	49287
▁manual	49289
wer	49313
▁seemed	49326
▁northeastern	49343
table	49344
▁oc	49356
▁wayne	49365
▁provinces	49372
tine	49372
▁wright	49381
▁mari	49418
▁commenced	49422
▁nbc	49423
hir	49424
tv	49440
pir	49450
▁certificate	49461
▁generate	49463
▁drove	49515
▁delayed	49544
▁failing	49556
▁gon	49562
ome	49564
▁innings	49569
tho	49571
▁dallas	49578
▁sor	49597
▁usual	49608
phy	49616
▁supplied	49623
posing	49624
▁connects	49627
▁springs	49647
▁helen	49653
▁spark	49669
▁alice	49681
▁discussion	49687
▁mechanism	49706
▁id	49709
tical	49721
▁closure	49734
mos	49748
▁shar	49752
▁odd	49767
▁promise	49780
iz	49805
▁hybrid	49811
shan	49832
▁illustrated	49846
▁removal	49860
ue	49867
▁smooth	49869
▁diameter	49881
▁highland	49898
▁bart	49912
▁markets	49913
▁accessible	49925
rio	49928
▁teach	49943
▁qa	49944
▁cardinal	49973
▁pole	49978
▁delivery	49980
▁louisiana	49988
nell	50005
▁dc	50014
▁principle	50016
▁hidden	50017
▁pale	50041
▁ties	50053
▁immigration	50060
cast	50067
▁michel	50069
▁quar	50069
▁railways	50079
▁referring	50084
▁romanized	50106
▁comics	50131
▁preliminary	50135
▁negotiations	50137
▁exposure	50217
▁iraq	50217
▁undergo	50231
▁tai	50234
▁carter	50248
▁worst	50249
▁crosses	50259
ao	50264
▁monthly	50283
▁relevant	50309
▁bulgarian	50329
▁realize	50343
▁weigh	50347
▁flo	50358
mbo	50365
ava	50368
▁norway	50385
▁cad	50390
▁sul	50401
▁patient	50411
▁tension	50414
▁comprises	50416
▁identical	50420
▁judges	50426
▁neighboring	50433
▁milk	50453
▁byzantine	50464
▁syrian	50489
▁pulled	50537
▁elevated	50540
bank	50564
ado	50565
zon	50572
hen	50585
▁willing	50586
▁excellent	50589
▁forests	50648
▁tested	50651
ada	50652
▁monitor	50655
▁pump	50687
▁turk	50694
▁mini	50698
hara	50701
▁apartment	50702
▁surgery	50718
▁pushed	50741
▁plastic	50743
▁bonus	50752
ero	50755
▁lou	50758
▁alien	50774
▁framework	50788
▁beam	50800
▁assets	50810
▁harm	50811
tric	50848
▁pierre	50870
met	50873
▁campbell	50877
▁functional	50893
▁jur	50898
▁dialect	50901
▁cotton	50912
▁profile	50912
▁mul	50916
▁barry	50917
▁radi	50917
▁wei	50927
pre	50944
tus	50946
▁relegated	50995
erie	51021
▁switched	51032
▁receives	51042
▁capita	51046
▁advice	51062
▁gan	51079
▁leon	51094
▁resumed	51126
▁cau	51133
▁marc	51133
▁telephone	51137
▁hub	51145
▁cir	51155
tens	51177
▁rally	51189
▁rush	51201
rog	51204
▁instance	51220
ora	51220
cen	51249
comp	51264
▁harbor	51281
▁decrease	51290
ale	51291
▁designation	51302
▁evolved	51305
▁regime	51324
▁concerts	51329
▁fantasy	51335
▁bench	51338
▁heir	51343
▁exclusive	51374
oo	51381
▁missions	51412
▁greg	51414
▁indicating	51422
▁stewart	51426
▁tourism	51431
▁industries	51437
▁orbit	51441
▁thompson	51464
cas	51484
▁innovation	51489
▁warren	51494
▁wrong	51500
▁relationships	51510
▁increases	51522
▁happy	51526
burn	51538
▁wealth	51549
▁martial	51571
▁pure	51592
▁enzyme	51615
ces	51638
▁handle	51640
▁celebrate	51642
▁tight	51662
ars	51677
▁sure	51691
▁colleges	51696
▁lodge	51717
▁jonathan	51732
▁burn	51737
sum	51737
▁myth	51759
▁pittsburgh	51776
▁interstate	51795
▁advisor	51797
nate	51812
▁expect	51814
▁enforcement	51818
▁montreal	51835
▁wars	51850
▁turkey	51854
▁copper	51855
▁engage	51856
▁approached	51861
book	51866
▁assessment	51894
▁download	51921
▁settlers	51951
▁quebec	51958
▁engineers	51964
acy	51979
bul	51994
▁extensively	52008
list	52033
ws	52046
▁agents	52052
▁shaw	52064
▁pier	52071
▁signature	52073
▁symphony	52081
▁yard	52081
▁protests	52114
▁jun	52116
▁statistics	52127
▁reg	52137
▁instrument	52157
vid	52164
▁absolute	52173
▁assess	52177
▁py	52178
▁silent	52202
▁raising	52203
agh	52204
▁guards	52213
▁pink	52233
▁jet	52238
▁charlie	52239
▁farmers	52250
bing	52276
band	52283
▁sung	52297
▁lakes	52299
▁iran	52305
▁slave	52314
▁bru	52335
▁mega	52336
▁cards	52338
ello	52341
▁depicted	52352
▁videos	52358
▁coached	52359
▁decorated	52373
ids	52382
posed	52384
run	52386
▁truth	52394
▁equation	52427
rac	52449
rey	52454
▁networks	52460
▁informed	52463
▁teammate	52465
organ	52476
▁pic	52477
▁trinity	52479
▁evolution	52492
vari	52507
▁fil	52520
▁nelson	52521
▁governments	52533
▁convicted	52536
gene	52539
cht	52540
fri	52541
▁narrative	52575
▁freight	52589
▁argentine	52600
▁qu	52604
▁tribes	52614
▁robin	52617
▁mam	52636
enberg	52652
ert	52655
▁autonomous	52656
▁package	52679
▁gardens	52681
▁tool	52705
▁rounds	52747
▁truck	52747
▁reporting	52753
sim	52792
▁schu	52826
kins	52832
▁kon	52845
▁hang	52862
▁automatic	52863
take	52874
▁permission	52914
▁sufficient	52928
▁pun	52945
▁seattle	52971
▁gui	52975
▁powered	52987
▁unless	52998
▁ranks	52999
struct	53000
▁movements	53014
▁nicholas	53016
▁mut	53032
arian	53061
▁baltimore	53061
▁atlanta	53079
▁mathematical	53081
▁cluster	53094
udi	53098
▁editorial	53099
▁latest	53100
▁commented	53106
▁murray	53112
▁dangerous	53121
▁remix	53129
▁examination	53132
▁guilty	53148
▁susan	53150
▁steps	53162
▁manga	53188
rid	53195
▁distinction	53197
▁shelter	53207
▁accurate	53211
▁pointed	53219
▁inherited	53229
▁prop	53229
active	53240
▁origins	53247
▁ranch	53251
▁hyper	53261
▁citing	53287
▁roots	53303
▁expert	53308
hard	53314
▁adapt	53319
▁wang	53333
▁poems	53339
tre	53358
▁molecular	53365
▁nik	53376
▁adams	53382
▁ei	53383
▁delay	53399
▁supplies	53411
▁flew	53425
▁tenth	53436
▁iowa	53456
▁helps	53464
ivity	53472
▁kn	53472
▁belief	53487
▁lanka	53507
▁sitting	53515
uit	53517
▁mines	53528
▁bosnia	53545
coming	53547
▁walking	53551
▁gru	53558
▁specialist	53559
▁belongs	53583
▁muhammad	53595
▁rarely	53602
eri	53603
▁historically	53614
▁reducing	53616
▁stamp	53632
▁fre	53648
▁rid	53657
▁introduce	53669
▁abu	53671
▁spa	53686
▁facilitate	53687
▁dragon	53695
▁cas	53699
aka	53703
▁maryland	53717
▁distinctive	53730
▁pc	53743
▁centuries	53758
▁eat	53759
▁cancelled	53767
▁dublin	53772
ered	53781
sburg	53790
▁characteristic	53809
▁scar	53814
▁cloud	53820
▁references	53826
▁transform	53871
▁civic	53879
▁favorite	53904
▁sacred	53907
▁characteristics	53918
▁intermediate	53920
sure	53922
▁joan	53935
▁vent	53940
▁partial	53942
ona	53951
▁boats	53960
▁collective	53997
body	54003
▁saving	54038
sson	54038
▁departed	54054
ico	54101
stra	54118
▁depression	54125
▁cbs	54129
▁deemed	54147
▁reaches	54151
▁oversee	54182
▁cum	54191
▁pipe	54194
▁def	54208
▁exists	54226
ingham	54243
▁cher	54249
▁thirty	54258
▁phd	54264
most	54268
▁rag	54274
▁edinburgh	54297
▁bou	54312
▁tourist	54312
▁germans	54329
▁moves	54346
▁wealthy	54350
▁preferred	54355
▁clock	54368
rian	54374
▁barn	54381
▁apparent	54389
▁territories	54398
▁prefer	54404
▁demolished	54411
nu	54440
▁mail	54503
▁henri	54529
▁congressional	54546
▁consul	54559
gel	54560
▁layer	54567
▁attempting	54580
▁territorial	54610
▁spell	54620
▁ferry	54621
▁canton	54627
▁placing	54628
▁lab	54693
▁graphic	54698
▁depend	54702
mes	54705
▁ages	54706
▁restricted	54728
▁connect	54732
▁fen	54774
▁southeastern	54780
▁extend	54799
▁islam	54800
▁phrase	54822
▁dal	54835
▁ruth	54837
▁mediterranean	54841
▁luis	54858
▁pav	54861
▁artificial	54879
▁tel	54885
▁lift	54895
▁repair	54917
▁writes	54923
▁landmark	54945
old	54965
▁decide	54976
▁unincorporated	54981
▁newspapers	54986
▁wider	54988
▁valuable	54997
▁undergraduate	55009
mel	55029
▁grace	55030
▁sculpture	55033
ban	55037
▁electricity	55065
▁sight	55072
▁ion	55079
▁recover	55097
▁nhl	55101
▁philippines	55101
▁confront	55112
ibility	55146
▁ky	55178
lay	55186
▁theatrical	55195
▁achievement	55212
ition	55212
▁fitted	55225
▁morris	55225
▁novels	55270
▁athletes	55275
▁shield	55284
ua	55301
▁believes	55308
tle	55309
▁thick	55311
▁destruction	55326
▁widow	55343
▁tools	55372
▁recognised	55375
▁compiled	55378
▁pont	55422
▁graham	55429
▁locally	55442
▁banned	55463
▁tip	55464
▁margin	55473
▁neo	55498
▁enrolled	55514
▁comparison	55528
▁supplement	55545
cul	55548
▁chess	55549
▁extent	55553
▁bangladesh	55556
▁quick	55568
▁maritime	55572
▁bath	55581
▁looked	55587
▁cartoon	55595
▁egypt	55599
▁venue	55624
rit	55629
nch	55637
▁pr	55650
▁benefits	55652
▁principles	55652
▁mun	55666
▁meetings	55667
▁themes	55668
▁prepare	55689
▁hence	55692
▁horror	55697
▁wish	55708
▁hop	55725
▁tomb	55732
▁supposed	55748
▁ivan	55783
▁lip	55813
▁pitch	55818
▁gear	55829
▁kelly	55862
▁kentucky	55868
▁landed	55885
▁bas	55897
▁liverpool	55914
▁wake	55942
lum	55953
▁inducted	55961
tsu	55988
▁cult	55997
▁instruments	56010
▁profit	56025
▁tech	56026
point	56032
tract	56041
▁trend	56068
▁bro	56069
▁swa	56077
▁defender	56084
▁patron	56086
▁agree	56087
▁explore	56092
▁overseas	56108
▁voters	56118
eo	56137
▁hur	56146
▁opportunities	56148
▁kent	56150
▁mineral	56162
▁qui	56178
▁distinguish	56181
▁hull	56214
▁abbey	56215
▁ranging	56217
▁error	56248
▁sixteen	56259
ib	56267
▁inspiration	56278
▁tokyo	56287
▁scientists	56331
▁thanks	56332
▁processing	56339
▁defended	56356
▁sr	56380
omi	56383
▁recovered	56392
▁processes	56400
▁thin	56400
▁eyes	56421
▁exact	56438
ob	56438
▁suicide	56451
▁portrait	56493
ished	56500
ille	56513
ren	56529
▁shall	56532
▁manufactured	56543
▁russell	56549
wing	56563
▁horses	56569
▁organic	56569
▁rocket	56576
▁installation	56584
▁wisconsin	56626
▁hawk	56627
▁playoff	56642
▁saudi	56655
▁manage	56670
▁subsidiary	56672
▁plain	56720
▁wal	56741
▁philippine	56743
▁nationalist	56744
▁wings	56744
▁eligible	56750
▁thing	56752
▁mainstream	56763
vent	56779
▁contributing	56800
▁accommodate	56813
▁drummer	56815
▁anyone	56864
log	56875
uring	56945
vel	56946
▁sporting	56977
▁deaths	56984
▁partners	56990
▁mason	57011
▁devices	57037
uous	57056
▁jobs	57059
nic	57059
▁devoted	57064
▁repeated	57070
▁und	57078
▁switch	57079
▁uncle	57081
▁warning	57087
▁rhode	57090
ancy	57109
▁northwestern	57144
ifying	57152
▁masters	57164
▁implemented	57165
cca	57189
▁dismissed	57196
ble	57200
gra	57201
▁blocks	57207
▁sisters	57240
▁raw	57242
▁johnny	57253
▁collaborated	57254
tis	57260
▁debt	57277
▁wheel	57292
▁tenure	57319
▁sweet	57322
▁annually	57327
tar	57332
▁isolated	57376
▁counsel	57381
▁losses	57382
▁random	57414
▁grows	57416
eng	57430
▁grave	57459
▁baby	57467
▁sy	57472
▁specialized	57473
▁exhibited	57492
▁terminus	57520
▁abd	57553
▁linear	57586
▁baker	57587
▁links	57592
▁franklin	57598
▁exhibit	57599
▁suburb	57601
▁collect	57643
▁withdrew	57650
▁rub	57651
▁emotional	57657
▁persian	57657
▁wedding	57668
▁dramatic	57687
▁seem	57692
▁anton	57706
born	57725
▁originated	57736
▁tier	57736
▁absence	57738
▁dominant	57760
▁warner	57770
pan	57789
▁verse	57803
▁tun	57817
▁rebuilt	57825
tch	57844
▁oklahoma	57885
▁belt	57886
▁inscription	57918
▁steal	57940
▁jason	57943
▁mathematics	57949
▁benjamin	57955
ene	57982
▁comprehensive	57990
▁resemble	57997
▁kennedy	58011
▁hil	58063
▁virtual	58075
▁conversion	58091
of	58135
dle	58152
▁prospect	58153
▁vessels	58173
▁manner	58186
▁destroy	58187
▁corresponding	58228
▁mck	58229
▁mutual	58229
abad	58250
▁trump	58254
▁parks	58269
▁qualify	58294
▁householder	58304
▁continuous	58325
mm	58325
cular	58345
ika	58378
▁possess	58379
bridge	58395
▁loop	58409
▁wu	58418
▁bet	58442
▁latino	58493
mat	58498
▁discussed	58499
▁sk	58507
▁everyone	58526
▁longest	58526
▁log	58536
▁glo	58556
▁blues	58584
▁cargo	58585
▁drum	58587
▁physics	58592
▁survive	58607
▁arriving	58611
▁fourteen	58627
▁recognize	58634
▁lowest	58651
▁traded	58668
▁indiana	58721
▁protestant	58721
▁diverse	58738
▁preserve	58749
▁requested	58753
gger	58781
▁jurisdiction	58800
morph	58820
▁marshall	58827
rated	58863
cio	58869
rating	58873
▁brazil	58876
▁respective	58881
▁discover	58892
▁touchdown	58902
▁interpretation	58922
▁responded	58922
▁gary	58943
▁blow	58971
▁climb	58987
▁costa	58999
▁suitable	58999
▁liquid	59047
▁vocals	59052
▁weekend	59056
▁marks	59064
▁controversy	59088
▁exclusively	59091
▁tribute	59135
▁promoting	59152
▁borders	59163
▁holiday	59165
▁miami	59192
▁besides	59195
▁submitted	59205
▁certified	59218
▁jury	59243
▁elite	59250
▁moment	59258
▁clearly	59263
▁manor	59279
▁concerning	59289
▁monastery	59305
▁ian	59339
▁bun	59348
▁dual	59377
▁demonstrated	59385
▁waste	59388
▁carlos	59399
▁crossed	59406
gie	59416
▁exposed	59420
ography	59429
▁chase	59439
ich	59451
▁describing	59461
▁permit	59461
rin	59479
▁producers	59481
▁mil	59489
▁cleveland	59515
▁buddhist	59521
ulation	59522
▁implementation	59537
cin	59544
▁missouri	59593
nik	59608
▁structural	59617
▁travelled	59620
▁dock	59629
▁hans	59640
▁abc	59656
wick	59696
▁centers	59703
▁component	59742
▁sample	59745
ack	59755
▁highlight	59766
▁judicial	59771
▁baptist	59802
▁shoot	59821
▁broadway	59847
▁components	59863
▁generated	59910
▁cooperation	59916
ked	59923
▁closer	59932
▁preserved	59937
▁reveals	59946
▁throw	59948
▁housed	59952
▁implement	59957
▁physician	59962
▁billy	59964
▁supporters	59967
▁variable	59972
▁signs	59986
▁demo	59989
▁merger	59996
och	60010
▁tube	60031
hra	60045
▁column	60053
▁indicates	60068
▁giant	60073
▁opt	60088
▁km	60118
▁displayed	60151
▁crash	60173
room	60174
▁arc	60197
▁rice	60201
▁vessel	60206
▁qua	60233
▁morgan	60256
▁petition	60286
▁initiated	60314
▁wildlife	60328
▁rad	60343
ice	60352
▁nearest	60364
odi	60374
get	60397
▁shopping	60425
▁filming	60434
hel	60451
▁cata	60455
itz	60471
pin	60471
▁marie	60485
cu	60494
▁involves	60498
▁clay	60521
▁virgin	60543
▁lan	60551
▁tribe	60565
▁locality	60571
▁closing	60575
▁singh	60582
▁ps	60583
▁plate	60598
▁participants	60639
▁ready	60650
▁escort	60659
ean	60679
ato	60688
▁tin	60716
▁scholar	60756
▁concern	60816
▁clo	60818
▁defend	60819
▁foster	60835
▁stanley	60873
pic	60875
eb	60880
▁tennessee	60880
▁rooms	60910
▁behalf	60919
▁economics	60937
▁decides	60947
▁consist	60976
▁reception	60992
▁eldest	60997
▁diamond	61032
▁traditionally	61044
▁gone	61067
▁ongoing	61094
▁beating	61108
▁executed	61131
▁alcohol	61148
▁hunter	61150
▁worship	61153
▁possibility	61156
ose	61161
▁reporter	61172
▁file	61197
▁segment	61215
▁wait	61232
▁minority	61281
sp	61292
▁encounter	61308
▁meters	61318
▁bha	61328
▁requirements	61333
down	61350
mmer	61353
▁sit	61362
▁il	61372
▁mississippi	61391
aki	61393
▁participating	61393
▁rabbi	61400
cut	61406
▁celebration	61411
jan	61417
▁wearing	61419
▁recipient	61427
pu	61437
▁alter	61477
▁emphasis	61503
▁decade	61534
▁conventional	61543
▁iranian	61569
▁dur	61596
▁breaking	61627
▁qualification	61659
bin	61679
▁conclusion	61697
▁meta	61721
ets	61745
▁diplomatic	61751
▁asks	61772
hill	61785
▁faith	61847
▁confederate	61860
▁tam	61883
▁wounded	61889
▁happen	61906
▁riding	61917
▁acquisition	61918
▁gift	61934
▁cle	61937
ographic	61938
▁oregon	61945
▁vas	61963
▁basin	61975
ld	61976
az	61982
▁productions	61986
▁bears	61995
▁infrastructure	62079
▁cousin	62088
▁kal	62089
▁vertical	62154
▁focuses	62173
▁harris	62210
▁semi	62218
ux	62219
▁contribute	62229
om	62229
▁adopt	62232
▁battery	62249
▁practices	62274
▁happened	62282
ties	62285
▁apply	62286
▁armenian	62286
▁violent	62301
▁dozen	62304
▁falling	62322
▁len	62345
ili	62346
▁ceased	62347
▁sailed	62354
▁advertising	62359
▁geo	62366
▁ibn	62379
▁kur	62415
▁remote	62415
▁pine	62441
lau	62459
▁outbreak	62490
▁fri	62518
▁drafted	62551
▁resort	62562
▁saturday	62624
▁enable	62627
ral	62628
▁moderate	62635
elle	62661
▁temp	62662
▁connecting	62680
▁trouble	62697
▁rapidly	62716
▁subjects	62822
▁zu	62836
▁anything	62930
▁houston	62936
ky	62937
▁peninsula	62937
▁root	62960
elli	63028
▁employ	63053
bound	63070
chu	63070
▁secured	63113
tte	63120
▁diet	63123
▁walker	63166
▁adults	63179
▁charity	63202
▁expand	63221
long	63236
▁assisted	63238
▁papers	63248
▁deployed	63249
▁glen	63264
▁waters	63316
▁ker	63322
▁medium	63334
▁missile	63334
▁stable	63340
lia	63347
▁nba	63350
▁syn	63350
▁yield	63368
▁transmission	63379
▁frequency	63398
▁dress	63400
▁speaking	63410
▁initiative	63437
▁advisory	63441
eh	63442
▁admiral	63447
lis	63468
▁prove	63487
▁legislature	63492
▁tests	63537
▁jimmy	63567
▁gap	63576
▁suggest	63583
▁rated	63628
tta	63646
▁copy	63658
▁dick	63674
▁detroit	63712
▁pel	63753
▁shock	63778
▁prisoners	63792
▁intellectual	63801
▁percentage	63836
yer	63859
▁sultan	63863
▁swimming	63866
▁valid	63877
▁musician	63895
▁essential	63906
▁tur	63913
▁driven	63916
▁retreat	63916
▁jordan	63922
ade	63946
▁mala	63949
dra	63969
▁kit	63973
hn	63996
▁pull	64004
▁maintenance	64013
▁disney	64019
▁produces	64027
▁finnish	64040
cept	64091
▁discuss	64129
▁merchant	64135
▁belonged	64166
▁speaker	64182
▁serial	64184
▁sweden	64193
bur	64219
▁crisis	64221
▁amendment	64260
▁seconds	64266
▁branches	64293
▁hum	64331
▁childhood	64337
▁pack	64337
▁divisions	64408
▁correct	64463
▁coup	64475
▁visible	64482
▁sab	64485
▁victor	64487
▁beetle	64515
▁partially	64550
ls	64559
▁serbian	64587
▁colony	64588
ulating	64624
▁jar	64626
▁eliminated	64648
▁incumbent	64649
▁bruce	64656
▁define	64673
▁cer	64676
▁math	64683
tive	64705
▁collections	64708
▁experiences	64711
▁christopher	64712
mond	64723
▁anderson	64748
bit	64750
▁rud	64805
▁kha	64862
▁technique	64877
▁nomination	64938
▁attract	64944
▁solution	64952
▁reduction	64967
▁nest	64984
▁premiere	64994
▁medals	65026
▁wants	65031
▁lawrence	65037
▁sentence	65088
▁fossil	65094
▁bernard	65097
▁output	65103
▁hispanic	65114
▁statistical	65168
▁window	65193
rop	65230
star	65247
▁establishing	65255
▁useful	65257
▁respond	65274
▁hunting	65292
▁warm	65359
▁experiment	65489
▁bound	65490
cal	65510
cia	65511
▁completing	65521
▁fundamental	65542
▁keeping	65606
▁laboratory	65607
pod	65615
▁dor	65616
▁publicly	65639
mont	65642
▁penalty	65674
▁emerged	65676
▁moore	65726
▁jesus	65728
▁ruler	65763
▁genre	65766
▁victims	65775
▁athletics	65778
gy	65782
sign	65792
▁seeing	65807
▁timber	65808
▁gray	65826
▁mouth	65843
▁hip	65844
▁everything	65873
▁departure	65879
▁begun	65884
▁dynamic	65903
ister	65936
▁licensed	65955
▁recordings	65955
▁vast	66013
▁sarah	66051
▁spending	66053
ros	66058
nce	66064
▁bel	66081
▁liga	66098
▁anchor	66145
▁funded	66206
logical	66231
▁partly	66276
▁outdoor	66311
▁leaf	66326
▁poem	66369
▁courts	66374
▁alternate	66390
part	66391
▁enjoyed	66442
▁reasons	66465
▁fifa	66473
▁identify	66497
▁researchers	66505
▁duo	66518
▁dominated	66537
ges	66544
oli	66572
▁sees	66589
▁publications	66590
ple	66606
▁summit	66638
▁picked	66669
▁concerned	66688
tain	66700
▁angle	66708
▁relation	66715
▁nova	66717
▁notice	66724
▁arizona	66726
rum	66726
cer	66743
▁ill	66754
▁romanian	66766
▁angel	66767
▁restaurant	66788
▁stan	66790
▁pain	66805
▁hollywood	66822
▁index	66851
▁rivers	66859
▁desire	66876
▁tail	66892
▁missed	66929
▁accounts	66939
▁lincoln	66986
▁gill	67038
▁uni	67049
▁humans	67056
▁easy	67068
▁retain	67071
▁duties	67072
▁sara	67085
▁bc	67099
▁trace	67120
▁hydro	67131
▁roy	67146
ically	67161
▁indicate	67206
▁policies	67242
▁hear	67251
▁decades	67264
▁printed	67302
▁employment	67312
ef	67341
▁substantial	67373
▁false	67401
phe	67405
els	67409
▁organised	67424
▁ji	67427
▁normally	67450
▁friendly	67452
ala	67460
▁bern	67463
▁gate	67475
▁wo	67484
lus	67500
▁electro	67501
zu	67537
▁marry	67547
▁wolf	67555
▁contribution	67566
▁jane	67572
▁hart	67580
▁animated	67614
mble	67646
mus	67671
▁lists	67674
▁archaeological	67680
▁proposal	67694
▁unusual	67731
▁encourage	67756
zer	67777
▁shares	67798
▁advocate	67831
▁possession	67842
▁exit	67847
▁option	67860
▁ign	67888
▁kir	67901
▁credits	67926
▁sad	67926
▁relocated	67934
▁ry	67938
▁coverage	67954
▁resident	67960
▁supports	67985
▁tie	67992
▁counties	68002
▁voting	68031
▁visitors	68055
▁sponsored	68109
▁attending	68126
▁detailed	68127
stan	68138
ved	68153
▁trophy	68163
▁elder	68165
▁exp	68182
▁managing	68200
▁norman	68220
day	68230
▁ontario	68304
▁fresh	68311
▁erected	68315
▁spend	68332
▁triple	68332
▁pursue	68349
▁message	68365
av	68385
▁makeup	68432
stein	68472
▁civilian	68474
▁treat	68475
pers	68518
▁greatly	68525
▁tru	68525
▁cash	68547
yo	68569
▁grass	68572
▁fifteen	68628
▁regard	68695
▁viewed	68777
▁fishing	68780
▁apparently	68783
▁indoor	68801
▁siege	68844
▁fled	68871
▁spoken	68884
▁lie	68916
hal	68928
▁strategy	68939
▁characterized	68949
▁gmina	68968
ened	68969
▁controversial	68993
▁netherlands	68996
▁schedule	69007
ure	69026
▁magic	69045
▁apple	69046
▁singapore	69051
▁mention	69064
▁commanded	69109
▁dna	69118
▁flowers	69156
▁appropriate	69163
▁existed	69163
ska	69184
▁cra	69219
ela	69225
▁suffering	69234
▁affiliated	69241
▁dynasty	69276
▁biological	69304
▁touring	69321
▁fun	69327
burg	69344
▁ninth	69350
▁ec	69392
▁enjoy	69395
▁ron	69432
▁preparation	69483
▁rates	69499
▁ryan	69539
▁soundtrack	69541
▁queensland	69551
▁seeking	69569
▁ruling	69578
▁custom	69594
▁submarine	69606
▁hunt	69614
▁carrier	69636
▁sugar	69639
▁raj	69642
▁toured	69647
▁minute	69681
▁aimed	69684
▁proper	69687
▁dra	69694
▁tang	69702
▁ped	69713
▁declined	69728
▁matthew	69740
fici	69743
▁rec	69743
▁les	69811
▁approval	69828
far	69829
▁kra	69834
ique	69838
▁questions	69846
▁tape	69848
▁effectively	69879
▁understand	69885
▁hurricane	69901
▁congregation	69909
press	69959
▁guy	69962
▁sentenced	70039
ulate	70108
▁ag	70126
era	70126
▁suspended	70131
serv	70156
cor	70208
▁stages	70251
▁ideal	70253
▁moon	70253
▁beautiful	70258
▁agriculture	70292
▁abuse	70302
▁gordon	70304
sie	70342
▁uefa	70349
▁immediate	70357
ulated	70366
ag	70392
late	70407
▁archbishop	70441
▁context	70453
▁pas	70490
▁remove	70513
▁gor	70539
▁couples	70563
art	70570
▁jeff	70625
▁completion	70629
▁compilation	70649
▁authors	70652
mit	70685
▁ranking	70692
▁reputation	70751
▁lap	70800
ites	70822
▁ratio	70826
▁nas	70855
▁businesses	70874
▁contested	70887
zan	70906
pped	70938
▁successor	70954
▁reportedly	70969
ep	70974
▁knew	70974
dia	70977
▁streets	70998
▁concrete	71014
▁claiming	71031
▁ros	71041
▁drawing	71050
▁tea	71072
▁marketing	71112
▁youngest	71116
▁actors	71135
▁lang	71151
▁earn	71167
▁radical	71182
▁vietnam	71212
lies	71216
▁ride	71254
sia	71270
not	71292
ons	71338
▁crystal	71342
▁jay	71359
▁belgian	71364
▁decline	71369
▁degrees	71372
▁gradually	71384
▁knight	71399
▁convert	71415
▁soft	71434
nan	71452
▁involvement	71494
▁kin	71505
▁explained	71508
▁treated	71514
▁engines	71557
▁classification	71578
▁hearing	71583
▁colorado	71602
▁hour	71604
▁victorian	71621
▁restoration	71740
▁inaugural	71766
▁roger	71774
▁fictional	71781
▁minnesota	71783
▁races	71826
worth	71827
▁pit	71896
▁participation	71939
▁stores	71943
▁diego	71954
▁describe	71966
ough	72006
▁endemic	72011
ient	72019
▁mir	72063
pl	72072
▁aero	72081
▁fed	72097
uri	72113
ase	72217
▁hero	72246
▁finals	72251
▁encouraged	72258
▁pictures	72259
▁egyptian	72267
▁legislation	72282
▁mix	72286
right	72289
▁reality	72292
pet	72300
▁facing	72339
gged	72339
▁stress	72349
▁till	72389
▁recommended	72394
▁skills	72394
▁continental	72441
master	72455
▁widespread	72457
▁talent	72474
▁antonio	72489
▁sel	72518
▁intersection	72525
▁cambridge	72567
duct	72644
ators	72649
▁sho	72655
▁shu	72676
▁instrumental	72703
▁device	72707
▁factors	72712
▁remainder	72736
▁maha	72754
▁hamilton	72821
▁practical	72833
cus	72856
▁monte	72884
▁guitarist	72918
▁costs	72932
▁minimum	72959
▁whit	72975
▁rival	73037
▁extreme	73055
▁romantic	73078
▁venture	73095
▁cavalry	73119
▁document	73139
▁pet	73143
pri	73144
▁grown	73145
air	73155
ay	73172
▁bright	73186
▁user	73224
▁missing	73245
▁alfred	73250
▁mechanical	73289
▁fill	73315
▁shah	73342
▁fm	73347
▁mas	73389
▁sole	73418
▁var	73441
▁defending	73459
▁designs	73473
fin	73477
▁kevin	73490
▁franchise	73493
▁scholarship	73509
▁universities	73557
▁balance	73560
▁storage	73582
▁por	73588
▁turning	73606
▁desert	73608
▁fixed	73623
▁rick	73637
▁bol	73642
▁attributed	73664
pro	73706
▁indicated	73740
ines	73744
▁applications	73751
▁documents	73753
▁portrayed	73772
dor	73787
▁testing	73794
chen	73820
▁rein	73833
var	73833
▁thousand	73842
▁rising	73952
▁allen	73976
gio	73979
▁shop	74015
▁legend	74077
▁posted	74097
tern	74115
duc	74169
▁fat	74199
bed	74270
▁palm	74280
▁moscow	74312
▁dispute	74343
▁kil	74374
▁traveled	74390
▁hosts	74403
▁denied	74411
uch	74431
▁popularity	74475
fo	74503
▁construct	74519
▁noble	74549
▁items	74562
▁domain	74576
▁kick	74627
▁villa	74634
▁occasionally	74653
▁element	74658
▁versus	74669
▁techniques	74724
▁trading	74726
cker	74764
▁clan	74790
▁behavior	74791
▁dj	74809
▁panel	74813
ston	74814
▁hits	74872
▁jump	74911
▁mounted	74913
▁objects	74957
▁boundary	74958
▁coat	74992
dd	75027
gent	75033
▁sl	75053
▁donald	75108
lor	75125
▁differences	75194
▁edited	75225
▁routes	75263
▁push	75264
▁definition	75266
▁obtain	75272
▁gro	75285
▁prix	75287
▁fighter	75320
▁cru	75416
▁thi	75431
▁patrick	75438
▁soul	75490
uc	75501
▁span	75507
▁pattern	75518
▁dream	75541
ray	75552
mir	75583
▁ter	75614
▁frequent	75649
▁modified	75667
▁inhabitants	75690
▁die	75695
▁musicians	75723
▁gross	75727
▁revival	75729
▁mr	75747
mark	75754
sel	75789
▁owners	75811
▁ste	75812
lar	75816
ira	75827
kov	75851
▁integrated	75877
▁substitute	75929
▁fin	75942
▁concerns	75962
▁seal	75972
▁belonging	75991
▁welsh	76011
▁korea	76037
▁attracted	76060
▁rio	76060
▁th	76062
dis	76075
▁princess	76103
▁symbol	76120
▁bed	76123
▁que	76124
ix	76169
▁equipped	76193
▁choose	76276
▁karl	76313
▁conf	76318
▁aviation	76354
▁cri	76399
▁exist	76451
▁uniform	76454
▁hol	76467
▁poverty	76475
▁threatened	76483
▁stra	76496
▁acted	76498
▁changing	76520
▁ownership	76524
▁shin	76550
fu	76573
▁margaret	76616
▁license	76632
▁donated	76678
▁interests	76685
▁horn	76696
▁outer	76710
▁somewhat	76820
▁worldwide	76849
▁transit	76876
▁charges	76898
▁melbourne	76931
▁otherwise	76980
▁bag	77002
▁com	77018
▁ceo	77034
▁competitive	77038
▁affect	77050
▁miller	77061
▁hundreds	77070
▁neither	77108
▁neuro	77141
▁arrest	77174
▁session	77178
▁shan	77239
phon	77273
▁douglas	77285
▁gal	77285
▁heads	77293
▁sharp	77302
mor	77358
ea	77406
▁craft	77408
▁chu	77454
▁mode	77457
▁sing	77664
▁gla	77707
ants	77762
▁massive	77787
tom	77792
▁fit	77803
▁rat	77811
▁spoke	77917
▁sections	77925
dar	77936
▁sort	77960
▁harvard	77974
▁hat	77991
▁corn	78006
▁clark	78052
▁teachers	78062
▁hindu	78075
▁depth	78088
▁filled	78111
tru	78129
▁feel	78131
▁passage	78175
▁euro	78193
work	78214
▁none	78216
gs	78254
▁kam	78292
und	78293
▁kh	78306
▁struck	78411
▁orange	78430
▁shut	78473
▁filmed	78484
▁grey	78491
▁measure	78551
▁weak	78600
▁values	78632
▁rifle	78645
▁concentration	78655
▁consumer	78734
▁insurance	78816
▁duty	78834
ena	78836
lock	78950
▁earning	78983
▁spec	78985
▁bodies	78997
ions	78997
▁bachelor	79011
▁composer	79088
▁poland	79130
▁ap	79147
▁strongly	79166
▁hungarian	79203
▁elevation	79231
▁diver	79237
▁dy	79262
▁lasted	79266
ano	79343
▁stem	79347
▁returns	79381
▁designer	79403
▁gulf	79410
▁ber	79434
▁eleven	79464
▁passengers	79496
▁replacement	79507
ye	79526
rang	79546
▁journey	79564
▁gil	79584
▁parent	79598
yn	79598
▁persons	79606
ped	79714
▁tamil	79721
▁directors	79731
▁sequence	79732
▁ann	79761
▁patrol	79764
▁difference	79780
▁mat	79809
▁tied	79819
▁coaching	79844
▁coalition	79864
aries	79866
▁secure	79913
▁dia	79962
gal	79962
▁revolutionary	79967
▁tro	79985
▁volunteer	79992
▁ty	79995
▁employees	80002
til	80023
▁images	80061
▁consider	80091
▁amongst	80093
▁restored	80160
▁adaptation	80189
▁surviving	80201
▁anthony	80208
▁rob	80213
▁birds	80223
▁alleged	80234
▁underground	80246
▁vision	80255
▁arena	80282
▁fired	80374
zy	80381
▁goods	80410
▁painter	80422
▁grounds	80426
▁surrounded	80449
▁driver	80450
▁ny	80460
rich	80481
▁ukrainian	80489
ans	80535
▁pla	80541
▁char	80562
▁experimental	80605
ula	80631
oma	80645
▁assistance	80647
▁massachusetts	80685
ore	80688
▁barr	80690
▁stretch	80710
tt	80734
▁pala	80768
▁ridge	80778
▁considerable	80793
▁skin	80835
▁injured	80906
ins	80947
▁damaged	80958
▁roads	80974
▁superior	80975
▁responsibility	80992
▁lose	80993
dom	80994
▁corporate	81018
▁answer	81053
▁graduating	81058
▁representation	81071
▁touch	81092
▁patent	81112
▁dated	81140
mate	81158
▁nick	81193
ou	81202
▁door	81216
▁flu	81224
▁rap	81280
▁illegal	81296
▁ren	81346
▁mall	81349
din	81351
net	81386
for	81391
board	81407
onic	81414
zz	81431
▁mus	81457
▁spiritual	81468
▁print	81475
▁celebrated	81478
sc	81479
end	81480
▁discovery	81524
▁export	81524
▁priest	81547
▁meets	81576
▁aspects	81586
▁struggle	81602
▁forming	81635
ria	81670
ration	81674
▁helping	81698
▁rescue	81725
▁courses	81758
▁plane	81771
▁coll	81846
▁audio	81870
▁mah	81875
▁incident	81955
▁deliver	81964
▁kings	81991
ual	82005
▁jon	82047
▁landscape	82050
▁homes	82058
▁pad	82100
▁studying	82124
▁gender	82170
▁relative	82204
▁jam	82267
▁exception	82277
▁anne	82303
▁churches	82330
ency	82419
▁violence	82437
▁evening	82455
▁rep	82479
▁kan	82506
▁soil	82509
▁electrical	82528
lie	82533
kan	82556
▁paintings	82567
▁operational	82605
▁bond	82651
▁terminal	82662
▁reaction	82678
▁assault	82687
▁tunnel	82688
ati	82696
ip	82752
▁check	82782
ab	82783
▁mod	82790
▁howard	82807
▁manufacturing	82856
▁alan	82871
▁cited	82877
▁demand	82877
▁ch	82942
▁resolution	82958
▁relief	82962
▁requires	83041
▁influential	83073
▁xi	83106
▁scholars	83228
▁huge	83234
▁cable	83325
▁capable	83389
▁revenue	83443
▁cathedral	83449
▁vocal	83503
▁manchester	83520
▁increasingly	83530
▁planet	83561
▁cave	83572
ata	83574
▁measures	83581
▁shift	83600
▁solid	83625
▁adding	83634
ians	83635
▁details	83653
▁dave	83663
▁weapons	83690
▁bringing	83696
▁replacing	83767
cc	83827
▁aim	83844
▁ph	83876
▁filed	83882
▁cycle	83886
▁stream	83904
rick	83947
▁institution	83967
▁wil	84015
▁eighth	84044
▁clinical	84054
▁dog	84100
▁bush	84111
ida	84136
▁bon	84140
▁grow	84148
hr	84149
▁equivalent	84156
▁bin	84189
▁circle	84192
▁differ	84198
ming	84204
▁solar	84214
▁banks	84359
▁juan	84382
▁competing	84383
▁ly	84397
▁arrival	84421
▁unknown	84422
▁exercise	84453
▁bear	84457
▁orthodox	84508
▁strength	84519
▁stopped	84585
▁catch	84677
▁whereas	84679
▁pakistan	84683
▁existence	84718
▁entering	84758
▁flows	84780
▁wooden	84805
atory	84836
▁survived	84836
▁fly	84888
▁mean	84951
▁cinema	85001
▁twenty	85001
▁dvd	85014
▁finding	85044
▁genetic	85046
▁accident	85113
▁tag	85186
▁signing	85228
mb	85233
▁factor	85236
▁gen	85268
▁kansas	85282
▁offensive	85288
▁charter	85334
▁raf	85361
▁fiction	85486
▁temporary	85557
time	85579
▁ceremony	85606
▁monument	85607
▁illinois	85631
▁visiting	85639
▁significantly	85641
▁cool	85682
sta	85700
del	85744
▁seed	85827
gor	85854
▁households	85861
▁cent	85875
▁apart	85973
▁map	85980
▁scheme	85985
▁appearing	86017
▁oak	86059
▁hay	86075
▁suggests	86145
▁tank	86169
▁buck	86189
▁criticism	86208
lam	86217
▁winners	86236
▁poetry	86239
▁shooting	86271
▁depending	86312
▁separated	86314
▁flood	86369
▁guide	86373
▁ways	86379
▁constant	86380
▁retail	86389
▁composition	86451
▁achieve	86479
▁guns	86498
▁frederick	86622
▁lar	86662
▁covering	86740
win	86762
▁anna	86788
▁epi	86811
▁architectural	86832
▁religion	86845
▁eva	86851
▁prepared	86880
bal	86899
▁turns	86907
▁pool	86934
▁continuing	86948
▁ross	86990
▁cy	86991
▁mit	86997
▁page	87010
▁scenes	87090
▁lin	87121
▁progressive	87178
▁kat	87207
▁identity	87215
▁dating	87300
fl	87318
ica	87327
▁membership	87358
vert	87483
more	87503
▁organisation	87507
ei	87526
▁gri	87545
▁fur	87549
▁bird	87565
tan	87667
▁drop	87669
▁moral	87674
▁camera	87701
▁adam	87716
▁ideas	87733
▁linked	87781
▁commonwealth	87813
▁lane	87821
shire	87821
▁piano	87835
▁jews	87907
mid	87960
▁jacob	87971
▁bla	87986
▁appointment	88004
▁bureau	88028
▁arranged	88030
▁functions	88054
▁description	88072
ram	88075
▁trees	88084
ik	88111
▁favor	88115
▁personnel	88125
ory	88142
▁christmas	88173
rie	88181
▁penn	88196
▁fred	88221
▁politics	88277
▁appeal	88293
sch	88335
stic	88342
▁elementary	88353
▁progress	88390
▁zo	88398
▁philosophy	88413
▁photo	88450
▁users	88480
▁lawyer	88536
▁rating	88568
▁americans	88580
▁fra	88587
▁perfect	88619
▁stayed	88667
ving	88731
▁select	88783
▁colour	88808
▁bands	88815
▁wine	88832
▁raid	88854
▁peaked	88892
bert	88894
▁counter	88977
▁locations	88978
▁bid	88988
▁honour	89007
▁satellite	89008
▁plus	89040
▁oxford	89054
▁favour	89071
▁wear	89074
▁austrian	89085
▁standards	89087
▁classified	89103
mu	89186
▁expression	89197
▁vehicles	89197
▁structures	89213
▁extremely	89216
dal	89220
▁diocese	89283
▁brain	89295
▁resistance	89328
▁stands	89329
bb	89420
▁statue	89429
af	89433
▁roughly	89508
▁translated	89511
▁constitutional	89512
▁ford	89520
ig	89560
▁honorary	89566
▁caught	89600
▁spin	89664
light	89667
ng	89672
▁rejected	89682
▁institutions	89772
▁strategic	89805
▁programming	89811
ments	89817
▁ambassador	89849
▁string	89879
▁statement	89889
sol	89980
▁understanding	89992
▁lock	90021
▁assist	90072
▁sang	90173
▁communication	90180
▁contributions	90219
▁studios	90221
▁interested	90230
▁constituency	90244
▁brazilian	90294
▁sn	90307
▁walls	90315
▁formally	90345
▁animals	90362
cre	90378
▁hair	90446
▁involving	90488
▁bottom	90592
▁herself	90600
▁pal	90624
▁driving	90629
idae	90643
▁tell	90648
▁allied	90729
cho	90761
▁opinion	90777
par	90839
ring	90888
pen	90957
▁sunday	90974
▁q	91054
▁danish	91124
tin	91125
▁mur	91159
▁delivered	91248
▁metro	91262
isation	91336
▁carrying	91348
ex	91367
ok	91368
▁brian	91394
▁crowd	91427
▁inner	91490
▁puerto	91506
▁samuel	91543
▁learned	91610
▁cabinet	91636
▁tele	91667
▁starts	91733
▁junction	91768
▁mp	91772
▁picture	91841
▁philip	91878
▁occupation	91924
tel	91928
▁retained	91931
▁require	91937
od	91947
▁davis	91962
▁elect	92000
▁views	92005
top	92008
▁gay	92043
king	92049
▁cemetery	92083
▁sil	92125
she	92148
▁attached	92151
▁hills	92157
▁causes	92221
▁weekly	92239
▁bow	92273
▁czech	92278
▁charged	92282
▁biggest	92283
▁tries	92321
▁pioneer	92359
▁offering	92397
▁transportation	92479
▁cam	92618
▁nothing	92641
▁notably	92654
▁metres	92679
▁outstanding	92680
▁eli	92765
▁experienced	92869
iya	92903
ow	92917
▁acid	92918
▁easily	92950
▁lewis	92967
▁hal	92998
▁snow	93003
▁thousands	93018
▁intention	93021
▁drawn	93046
water	93077
ther	93085
▁suit	93096
▁cook	93152
▁reflect	93167
▁qualifying	93225
ular	93277
▁protein	93279
▁harry	93323
▁stood	93328
▁benefit	93342
xi	93375
▁communications	93417
▁writers	93438
▁nar	93488
▁protected	93492
▁creative	93498
ud	93579
nie	93603
▁phone	93616
▁singing	93624
▁landing	93746
▁usa	93759
▁mining	93770
▁chapter	93939
▁orders	93945
▁crossing	94001
▁rome	94010
▁economy	94023
▁accept	94034
▁ana	94072
▁safe	94108
▁philadelphia	94119
▁baron	94124
▁taylor	94136
▁sto	94205
▁admitted	94208
▁emergency	94226
▁journalist	94227
▁debate	94278
cip	94328
▁criticized	94345
tur	94345
▁nan	94407
▁expedition	94421
▁represents	94472
▁whilst	94482
▁protest	94483
▁golf	94498
▁mine	94539
▁tre	94564
▁carbon	94664
▁category	94668
▁assumed	94812
▁watch	94857
▁fast	94898
ara	94904
▁sen	94922
▁pieces	94929
▁wilson	94968
▁contrast	95056
▁nation	95059
ction	95073
op	95089
▁strip	95135
▁toronto	95158
▁opposite	95166
▁surname	95183
▁khan	95199
bury	95275
▁gets	95333
▁socialist	95385
▁regularly	95395
▁injury	95399
▁fruit	95413
▁max	95422
▁carl	95441
▁offices	95456
▁spirit	95533
▁anniversary	95556
▁senator	95563
▁note	95746
▁nfl	95753
▁credited	95768
▁borough	95797
dan	95852
▁gang	95896
▁commune	95913
▁showing	95930
▁wins	96009
▁perhaps	96014
▁berlin	96089
ture	96098
▁link	96127
▁script	96159
▁painted	96207
zar	96221
▁eye	96233
▁occur	96364
▁powers	96402
▁jackson	96416
▁selling	96444
▁raise	96499
▁tennis	96527
▁properties	96532
ery	96552
▁downtown	96670
▁committed	96681
nal	96689
▁starred	96744
▁sciences	96765
▁georgia	96768
▁accompanied	96794
▁headed	96819
▁rod	96820
▁rain	96838
▁conduct	96884
▁gallery	96925
▁patients	96937
▁buy	96987
dale	97097
▁defeating	97135
▁maintain	97147
use	97199
▁roll	97259
▁rapid	97280
▁portuguese	97287
▁shore	97306
▁net	97400
▁hy	97429
▁threat	97432
▁translation	97467
▁drew	97579
ct	97596
▁tall	97603
▁clean	97612
▁enemy	97630
▁candidates	97655
▁temperature	97672
▁operates	97677
▁commissioner	97703
▁phil	97752
▁feed	97809
▁task	97842
▁audience	97924
▁importance	97943
▁limit	97944
uff	98155
▁hands	98185
▁credit	98224
▁copies	98278
▁wave	98300
▁defensive	98301
ani	98316
▁artistic	98318
our	98332
▁matter	98358
▁adapted	98393
▁chapel	98468
▁failure	98474
▁alex	98624
▁tradition	98785
rd	98801
▁brick	98843
▁leads	98858
▁factory	98876
▁seems	98895
▁medieval	98947
cent	98965
▁flow	98996
▁revolution	99001
▁ye	99003
▁fields	99018
▁tony	99051
▁broken	99268
▁scotland	99313
▁residential	99320
▁mind	99351
▁wrestling	99367
ington	99371
▁hope	99398
if	99424
sur	99427
▁actual	99428
▁eric	99445
san	99447
▁sky	99520
act	99546
▁historian	99555
▁disease	99581
▁invasion	99633
▁las	99676
▁languages	99702
gu	99756
▁dean	99796
▁stating	99917
▁cells	99969
▁funds	100089
▁tend	100094
▁mountains	100114
▁boys	100162
ide	100218
▁israel	100237
▁affected	100272
▁residence	100276
▁den	100292
▁canal	100299
▁indigenous	100333
▁dates	100351
▁associate	100390
▁budget	100519
▁asia	100537
ability	100559
bel	100559
▁artillery	100633
▁sons	100729
▁distributed	100731
▁actions	100773
▁spain	100808
▁capture	100818
▁iv	100818
▁looking	100818
form	100925
▁controlled	100937
▁distinct	100957
▁operate	100995
▁conservation	101024
▁observed	101218
low	101267
▁bor	101271
▁narrow	101289
▁lyrics	101302
▁installed	101346
▁improved	101377
ify	101399
▁speak	101417
▁bass	101430
ane	101503
▁emb	101526
▁roof	101569
▁severe	101602
cy	101678
▁concluded	101682
▁vehicle	101700
▁swiss	101737
▁parallel	101739
▁nazi	101740
▁zi	101800
row	101831
▁islamic	101881
▁lands	101942
▁twin	101973
▁reviews	102018
▁mono	102043
ms	102113
▁habitat	102143
▁fer	102188
▁motion	102221
▁moth	102284
▁introduction	102295
▁rev	102304
▁bri	102330
ologist	102338
▁mol	102510
▁chamber	102541
▁tim	102612
▁ir	102703
▁es	102743
▁shape	102774
▁pot	102803
▁respect	102806
▁females	102826
▁simon	102838
▁trip	102926
▁calls	102944
tha	103010
▁salt	103039
▁screen	103060
▁neighborhood	103094
▁comm	103128
▁fla	103169
▁memory	103197
▁weather	103217
▁fear	103226
▁ohio	103236
▁frame	103266
▁organ	103293
▁spot	103297
ris	103304
▁pra	103311
sis	103329
▁walk	103337
▁turkish	103349
▁ottoman	103399
gate	103401
▁debuted	103420
▁abandoned	103452
▁sale	103484
▁standing	103501
▁mont	103519
ap	103539
▁slow	103630
oid	103652
vers	103664
▁ze	103666
▁sector	103675
▁orchestra	103704
▁bomb	103712
▁sur	103715
▁coastal	103727
▁ur	103786
▁send	103803
▁cla	103855
▁fashion	103858
▁albert	103903
mas	103965
▁needs	104014
▁agent	104015
▁ahead	104021
▁briefly	104033
▁opportunity	104052
▁ends	104081
▁russia	104130
▁possibly	104211
▁engineer	104222
▁alone	104267
▁height	104367
▁entirely	104381
▁architect	104543
▁earliest	104548
▁specifically	104548
war	104751
▁accused	104759
▁racial	104933
▁medicine	105066
▁universal	105076
▁sim	105098
▁walter	105123
ker	105163
▁critics	105204
▁sets	105292
▁architecture	105329
▁poet	105386
cher	105388
ves	105454
▁chain	105486
▁coal	105515
▁why	105541
▁selection	105584
▁talk	105606
▁shell	105657
▁citizens	105669
▁methods	105700
▁heard	105726
bra	105746
▁contain	105791
▁ac	105983
rate	106038
▁sides	106118
▁feet	106122
▁materials	106185
▁passes	106187
▁fans	106193
bus	106231
▁seats	106290
▁israeli	106295
▁cro	106322
mic	106356
▁really	106377
▁victoria	106393
oc	106417
▁ski	106427
ub	106432
▁seek	106457
▁escape	106459
▁calling	106506
▁brief	106526
▁chose	106602
▁comic	106620
▁getting	106620
▁transition	106622
mal	106800
die	106803
▁colonel	106836
vis	106863
▁circuit	106878
▁web	106885
▁contest	106891
▁follows	106904
▁constitution	107016
gon	107085
▁seventh	107133
▁background	107193
▁publishing	107242
▁col	107273
▁classes	107302
▁premiered	107376
ably	107470
▁muslim	107485
▁replace	107499
▁op	107502
tz	107513
eg	107601
▁yo	107666
▁recognition	107700
▁ger	107720
▁finance	107750
▁describes	107754
▁critic	107910
▁adjacent	107947
▁rare	107969
▁typical	107973
▁attacks	108000
▁follow	108058
so	108060
▁retirement	108065
▁mon	108114
▁regions	108163
▁attorney	108173
ising	108226
▁cat	108274
wan	108286
▁jersey	108296
▁ruled	108377
ging	108400
sk	108447
▁mobile	108464
▁praised	108518
▁advantage	108582
▁est	108624
▁mental	108728
▁electoral	108758
▁situation	108770
▁resigned	108784
sey	108791
▁bull	108815
▁broadcasting	108825
▁falls	108848
▁dun	108886
▁southwest	108956
▁dry	109012
▁kim	109030
▁purchase	109050
▁billion	109210
▁treaty	109232
▁internet	109424
▁matt	109602
▁trained	109687
▁sh	109706
▁participate	109713
tter	109723
▁generation	109776
▁speech	109835
▁jean	109882
▁connection	109923
▁organizations	109940
▁engaged	109978
▁pri	109988
▁michigan	110004
▁cu	110007
▁tan	110007
▁hor	110057
▁collaboration	110065
▁hundred	110105
▁regarded	110211
▁soccer	110222
▁pilot	110318
▁pu	110347
▁closely	110357
▁doctor	110360
ken	110545
▁reign	110594
▁quite	110646
▁cancer	110651
▁strike	110667
▁poly	110687
▁maintained	110700
▁causing	110786
▁palace	110875
matic	110899
▁distinguished	110928
▁animal	110970
▁scale	111008
▁sell	111120
▁intelligence	111213
▁lay	111245
▁determine	111334
▁producing	111336
▁boat	111354
set	111514
▁application	111704
▁gre	111743
▁gene	111753
▁amateur	111789
▁write	111819
▁attend	111841
▁doing	111854
yan	112083
▁girls	112096
▁votes	112177
tes	112285
ec	112288
▁object	112290
▁trying	112313
gue	112346
▁sin	112364
ev	112376
fer	112387
▁twelve	112408
mp	112421
▁folk	112425
uk	112473
▁resources	112499
▁glass	112525
▁val	112528
▁chance	112561
▁andrew	112588
▁combination	112616
cur	112698
▁someone	112862
▁letters	112882
▁cold	112924
let	112932
▁worth	112946
kar	112951
▁norwegian	112951
▁collected	112959
▁kong	112972
▁vol	112979
▁guitar	112989
▁argued	113022
ola	113052
▁enter	113073
▁arm	113100
res	113118
▁arab	113140
▁articles	113176
hl	113197
▁carry	113201
▁federation	113202
▁auto	113275
▁consisting	113396
▁serious	113416
▁piece	113427
▁villages	113452
▁arthur	113468
▁mcc	113508
▁laws	113576
qua	113610
▁ple	113617
ski	113640
▁independence	113721
▁laid	113798
▁necessary	113828
▁registered	113891
▁ward	113931
▁occurs	113991
▁entrance	114019
▁literature	114083
▁arms	114129
▁sites	114229
▁ensure	114596
▁authorities	114605
▁titles	114625
▁heavily	114634
▁partner	114786
▁things	114893
▁min	114971
▁question	115058
kh	115066
▁athletic	115068
▁notes	115123
▁ce	115147
▁performances	115169
▁merged	115230
▁alliance	115286
▁districts	115297
▁challenge	115552
▁tar	115561
▁passing	115567
▁steve	115718
▁girl	115722
▁bit	115738
▁heat	115765
▁hired	115780
▁killing	115810
▁machine	115833
▁figures	115909
▁proved	115934
▁mad	115999
▁fund	116076
▁mal	116083
▁pur	116208
▁finds	116262
▁teacher	116317
▁northeast	116356
▁joining	116380
▁address	116426
▁pope	116433
▁parliamentary	116449
▁fox	116564
▁carolina	116570
▁signal	116578
back	116609
▁fame	116628
gan	116790
▁try	116805
▁acts	116866
▁christ	116891
▁voted	116922
▁extension	116979
▁crown	117003
▁conflict	117007
▁draft	117073
▁windows	117122
▁problem	117273
▁add	117287
▁models	117399
▁toward	117427
▁maria	117437
▁contained	117456
ll	117462
▁straight	117509
▁educated	117517
ai	117555
▁ncaa	117568
ates	117576
ita	117608
med	117641
▁sydney	117662
▁facility	117709
▁reaching	117725
▁negative	117778
▁poll	117837
▁greatest	117865
▁condition	117883
▁partnership	118066
▁flat	118090
▁equipment	118120
ks	118152
▁improve	118189
▁italy	118198
▁britain	118390
▁sense	118402
lon	118474
▁target	118489
▁display	118537
▁ti	118549
▁bat	118601
▁flag	118617
▁publication	118658
▁plants	118668
▁episodes	118761
▁successfully	118785
▁twice	118833
▁versions	118845
▁passenger	118897
▁electronic	118936
▁sta	118940
▁parties	118962
▁hi	119046
over	119242
▁ol	119293
▁francis	119550
▁yards	119646
▁request	119705
▁examples	119723
▁funding	119763
can	119791
▁earl	119980
fe	120034
▁volume	120044
▁kill	120111
▁fuel	120169
▁reform	120184
ru	120216
▁ash	120317
▁formal	120352
ee	120358
▁believe	120376
▁incorporated	120413
▁positions	120491
▁expressed	120581
▁powerful	120616
▁brigade	120654
▁derived	120656
▁determined	120681
▁purpose	120754
▁non	120841
▁males	120914
▁core	121016
▁slightly	121041
▁bowl	121262
▁environment	121265
▁setting	121291
▁olympics	121315
▁sought	121414
▁ethnic	121499
ura	121558
▁flying	121570
▁owner	121584
▁pin	121765
▁refers	121853
sha	121939
▁freedom	121946
▁stephen	121973
▁entertainment	122133
▁colonial	122146
▁establish	122200
▁row	122300
▁sar	122328
stone	122353
▁dropped	122419
▁cape	122450
sky	122480
▁theme	122590
▁iii	122721
▁chair	122762
town	122810
▁save	122885
wi	122909
▁officials	122925
illa	123036
▁garden	123070
com	123139
▁invited	123412
▁painting	123458
▁convention	123533
▁trail	123707
▁choice	123842
▁ed	123860
▁effort	123860
▁consecutive	123908
▁expansion	123947
▁williams	123983
▁gra	124016
▁developing	124096
▁jones	124150
▁columbia	124179
▁containing	124215
ens	124231
▁ending	124284
▁sport	124298
▁advance	124336
▁jazz	124414
▁interior	124422
port	124523
▁says	124551
▁begin	124677
▁covers	124681
▁influenced	124728
▁documentary	124764
▁roles	124788
▁programme	124791
▁squad	124886
off	124951
▁reading	125027
ile	125193
▁external	125224
▁affairs	125232
▁communities	125286
▁finishing	125427
▁mexican	125503
▁bu	125528
▁trust	125569
ification	125582
▁investment	125591
▁ray	125804
▁establishment	125869
▁arrested	125919
▁exhibition	125959
▁chris	125968
▁ali	126176
▁attacked	126183
ned	126226
je	126293
nes	126307
▁cars	126441
▁northwest	126569
▁battalion	126600
▁effective	126643
ot	126645
▁attempts	126669
ette	126681
▁learning	126692
▁atlantic	126769
ho	126830
ju	126893
▁qualified	126977
▁johnson	127010
▁towns	127058
sion	127289
▁path	127349
▁fo	127357
▁representatives	127361
▁entry	127400
▁learn	127421
▁analysis	127484
▁planning	127684
ese	127728
▁actress	127734
▁employed	127896
▁foot	128028
▁tree	128050
dic	128074
▁holding	128096
▁image	128200
▁avenue	128326
▁meant	128354
▁refused	128453
▁converted	128517
▁step	128521
▁crime	128633
▁ci	128743
▁metropolitan	128815
mann	128827
▁faced	128840
▁increasing	128859
▁regarding	128947
▁drug	129083
▁sources	129154
▁reports	129236
▁stand	129346
▁platform	129397
ini	129421
▁jim	129475
▁app	129498
▁ultimately	129533
▁trains	129598
▁contributed	129643
▁occupied	129649
▁theater	129739
▁price	129798
▁facilities	129820
tu	130029
▁ser	130046
▁je	130088
▁represent	130118
▁acc	130160
gg	130261
▁reduce	130313
▁something	130338
▁stay	130360
▁agency	130393
▁wales	130448
▁rear	130457
▁champions	130510
▁interview	130536
▁mor	130537
▁opposed	130633
▁faculty	130671
▁ocean	130819
▁ken	130825
▁chemical	130840
▁mike	130979
▁southeast	130983
▁origin	130988
▁tropical	130991
▁plot	131030
▁aged	131070
▁activity	131075
▁onto	131249
▁focused	131251
▁shared	131261
▁maximum	131267
▁yellow	131379
▁defence	131386
▁website	131422
▁morning	131435
▁beyond	131440
▁frequently	131574
pt	131620
▁approved	131686
▁gain	131883
▁representing	131930
▁extensive	132012
▁entitled	132048
▁boston	132056
▁sri	132117
▁ham	132153
▁trial	132164
ek	132186
▁investigation	132435
▁launch	132463
▁sum	132489
▁scheduled	132516
my	132529
▁classic	132578
▁equal	132613
▁unlike	132614
▁floor	132749
▁nuclear	132795
▁rank	133217
▁cal	133237
▁knowledge	133291
des	133312
▁zone	133323
▁pennsylvania	133390
▁weight	133399
▁earth	133412
▁adult	133512
▁beach	133537
▁words	133616
▁sex	133696
▁florida	133701
▁safety	133724
▁loan	133746
▁begins	133781
▁formula	133923
▁guest	133929
▁lady	133937
ise	134024
▁fought	134064
▁card	134087
▁look	134100
yl	134111
▁bal	134137
▁bob	134177
▁z	134243
br	134397
▁disc	134495
▁bio	134556
▁ve	134579
▁wi	134618
▁promote	134666
▁broke	134689
▁claim	134956
▁agricultural	135057
▁francisco	135073
▁clubs	135081
▁steam	135104
▁ki	135267
▁reason	135292
▁say	135292
▁holy	135436
▁visited	135809
▁mexico	135842
▁attempted	135869
▁aired	136014
▁software	136030
▁completely	136140
▁relations	136151
ric	136255
▁birth	136263
pi	136315
▁defined	136440
nt	136452
▁pat	136458
▁household	136492
▁provincial	136532
▁receiving	136544
▁format	136621
ations	136633
▁corner	136698
▁founder	136803
▁prison	136855
▁pick	136893
▁box	136905
su	136913
▁politician	136953
▁commissioned	137018
▁mile	137019
▁portion	137065
hi	137111
▁founding	137209
▁text	137238
▁claims	137317
▁peak	137383
▁labor	137391
zo	137505
▁scott	137528
▁chosen	137567
▁cd	137572
▁projects	137578
red	137597
▁normal	137690
▁miss	137807
▁visit	137822
▁settled	137866
▁elizabeth	138000
▁comp	138168
izing	138252
▁rules	138586
▁campus	138737
▁consisted	138769
▁steel	138867
▁phase	138953
ari	138980
▁scene	139108
gar	139113
head	139153
▁arch	139163
▁han	139218
▁starring	139277
▁storm	139288
▁horse	139318
▁fish	139319
all	139339
▁supply	139397
▁heritage	139416
▁holds	139477
▁bad	139509
jo	139539
▁traffic	139669
▁tra	139712
▁educational	139732
▁sch	139789
▁micro	139974
▁cap	140003
▁mel	140032
▁permanent	140054
tal	140129
▁opposition	140142
▁mag	140206
▁creating	140312
▁bring	140388
▁classical	140401
▁combat	140449
▁visual	140527
▁oldest	140547
▁corporation	140637
▁railroad	140679
▁lieutenant	140774
▁achieved	140778
ino	140894
▁conditions	140972
house	140980
▁leg	141130
ez	141166
▁simple	141224
▁quarter	141274
▁product	141385
bu	141410
▁wild	141420
▁offer	141421
▁basis	141593
▁destroyed	141805
▁brothers	141828
▁daniel	141850
cing	141867
ella	142061
▁cho	142109
amp	142122
▁leaders	142181
lan	142300
▁supporting	142313
▁formerly	142568
▁couple	142763
▁approach	142778
▁climate	142864
▁wind	143048
au	143113
▁shi	143126
▁promotion	143189
▁korean	143376
side	143396
▁bought	143430
▁cre	143438
▁sand	143454
▁murder	143507
▁contact	143567
▁finish	143604
pur	143909
▁leaves	143947
▁sat	143988
ological	144021
▁criminal	144122
▁express	144196
▁fighting	144220
▁virginia	144228
▁mi	144443
▁relatively	144603
▁damage	144627
▁sales	144646
▁concert	144709
▁swedish	144732
▁think	144747
▁difficult	144799
▁sc	144917
▁connected	144947
▁simply	145016
▁ireland	145026
▁sexual	145080
▁fully	145129
▁ram	145232
▁boy	145234
▁cannot	145262
▁goes	145302
▁allows	145374
nd	145425
▁edge	145544
▁protect	145568
▁ra	145571
her	145634
ten	145912
▁unable	145981
and	146042
▁fc	146055
▁broad	146268
▁literary	146400
ft	146432
▁figure	146480
▁guard	146571
▁multi	146587
car	146750
▁alternative	146837
▁gives	146873
ward	146925
▁allowing	146927
▁seasons	147131
▁survey	147136
▁bronze	147174
▁levels	147221
▁recently	147278
ps	147359
▁secret	147421
ries	147572
▁ring	147592
▁stories	147726
▁presidential	147775
▁albums	148034
▁density	148146
▁reference	148176
▁armed	148197
▁performing	148286
▁month	148322
▁aid	148350
▁internal	148374
▁winner	148427
▁joe	148462
▁table	148463
▁nu	148478
▁tried	148560
▁succeeded	148691
har	148697
▁headquarters	148781
▁job	148822
▁existing	148921
▁representative	148935
▁jan	148995
▁nor	149085
▁islands	149089
▁color	149096
che	149191
▁therefore	149203
▁elections	149306
▁mill	149308
▁rule	149318
▁empire	149626
▁sixth	149629
▁marked	149636
▁products	149758
▁transfer	149782
▁asian	149805
▁fleet	149875
▁ri	149886
▁occurred	149915
▁problems	149928
▁needed	149934
▁avoid	150035
▁ep	150035
▁vice	150038
▁labour	150121
▁expected	150250
vin	150448
▁leadership	150506
▁store	150510
▁soldiers	150586
▁domestic	150663
▁bbc	150747
▁tells	150828
▁capacity	150994
ible	151038
▁territory	151156
▁graduate	151225
▁workers	151264
▁younger	151272
ett	151336
ns	151419
▁true	151618
well	151635
▁cricket	151654
▁compete	151689
▁attention	151830
▁fair	151922
▁vote	151991
▁continues	152028
▁effects	152040
istic	152041
▁ga	152113
em	152115
▁individuals	152146
▁bur	152160
▁today	152181
▁obtained	152196
▁alexander	152217
▁quality	152322
▁basic	152358
▁mentioned	152396
▁reduced	152410
▁creation	152489
▁electric	152504
▁communist	152574
▁identified	152656
▁charge	152665
▁concept	152704
▁want	152721
▁imperial	152799
▁comedy	152806
▁pair	152850
▁paid	152891
▁method	152908
▁santa	152925
▁fu	152932
▁dead	152986
▁brand	153013
▁journal	153175
van	153214
▁legislative	153224
▁percent	153238
▁presence	153247
▁direction	153289
▁gi	153338
▁share	153365
▁search	153541
▁designated	153704
▁sal	153794
▁suggested	153914
▁receive	153940
▁protection	154049
▁granted	154092
▁kept	154241
▁senate	154256
▁tower	154338
▁actor	154392
▁settlement	154778
▁becomes	154803
▁hotel	154838
▁remain	154872
▁mixed	154924
ach	154928
ron	155012
▁removed	155234
ph	155333
▁grant	155404
▁reserve	155514
▁actually	155612
▁efforts	155690
▁bre	155853
▁footballer	155861
▁conservative	155968
▁inspired	156197
▁dr	156308
▁subsequent	156344
▁estate	156428
▁captured	156434
▁ab	156444
▁creek	156576
▁forward	156592
▁accepted	156757
▁buried	156782
▁unique	156796
▁types	156991
▁vo	157033
▁friends	157199
▁read	157200
▁numbers	157293
lt	157374
▁growing	157441
▁situated	157513
out	157547
iv	157591
▁confirmed	157776
▁pressure	157879
▁showed	158041
kin	158086
▁content	158100
▁value	158123
▁expanded	158157
▁golden	158416
▁township	158492
▁ability	158525
▁except	158582
▁officers	158586
▁break	158587
▁kar	158661
▁extra	158682
pe	158892
▁recognized	158933
don	159076
▁fan	159159
▁infantry	159213
▁rich	159325
▁nominated	159413
▁providing	159460
▁risk	159527
▁von	159572
▁duke	159828
▁newly	159910
▁authority	160019
▁racing	160025
▁newspaper	160240
ists	160243
▁losing	160567
▁africa	160657
▁grade	160721
▁resulting	160871
▁em	160941
▁ranked	161043
▁scoring	161070
▁dar	161111
cha	161197
ities	161206
▁yu	161382
▁growth	161483
▁dam	161589
▁firm	161624
berg	161637
▁za	161657
▁pe	161900
▁der	161952
▁saying	161983
▁returning	162010
▁prevent	162048
▁drive	162075
▁perform	162090
▁distribution	162244
▁applied	162299
zi	162460
shi	162529
▁cities	162628
ning	162641
▁squadron	162690
▁producer	162821
pp	162846
▁felt	163113
▁spread	163147
▁farm	163316
▁municipal	163367
ious	163401
▁taught	163401
▁et	163409
▁let	163490
▁motor	163634
▁os	163635
▁blood	163637
▁minutes	163908
ung	163954
▁jack	164050
▁gar	164198
ac	164342
▁elements	164869
▁honor	164896
▁paper	164974
▁eu	165259
▁emperor	165455
▁tom	165501
▁environmental	165693
ding	165746
▁hong	165935
▁peace	166044
▁cell	166161
▁offers	166291
▁theory	166343
▁opera	166470
▁agreed	166517
▁distance	166531
tro	166565
▁older	166745
▁stars	166786
du	166812
ven	166938
bar	167107
val	167211
▁rail	167239
▁tracks	167341
▁flight	167461
▁meet	167630
▁stations	167645
▁bra	167850
▁si	167879
▁teaching	168058
▁account	168063
▁nations	168121
▁wa	168228
▁online	168303
▁hu	168385
▁stop	168396
▁candidate	168509
▁lives	168613
▁rise	168727
▁ships	168741
▁daily	168808
▁sign	168913
▁adopted	169133
▁kind	169642
▁appearances	169684
▁chicago	169762
▁amount	169906
▁count	169919
▁hosted	169956
▁resulted	170093
▁beat	170230
▁acting	170251
▁friend	170256
▁angeles	170328
▁olympic	170363
▁residents	170480
ified	170603
▁declared	170652
▁fell	170654
▁split	170723
▁era	170824
▁surrounding	170825
▁stock	170994
▁fe	171009
▁coming	171026
▁ju	171059
▁wing	171244
tri	171296
▁quickly	171304
▁corps	171364
▁develop	171419
▁parents	171421
▁treatment	171518
▁paris	171598
▁widely	171760
▁lot	171819
gi	171921
▁cor	171998
▁serves	172243
ol	172322
▁premier	172354
▁che	172881
▁titled	172985
hu	173005
▁joint	173143
▁register	173329
we	173434
▁gu	173450
▁experience	173489
▁mu	173553
▁engineering	173687
▁er	173715
▁suffered	173765
▁mer	173930
▁miles	173989
mon	174133
▁block	174165
▁liberal	174181
▁your	174441
▁organized	174660
▁pi	174687
▁combined	174829
▁advanced	174877
▁potential	175246
▁deputy	175254
▁formation	175302
▁para	175605
▁husband	175657
▁va	175661
ana	175687
▁mid	175779
▁probably	175922
▁queen	176198
▁room	176250
▁draw	176665
▁defeat	176679
▁houses	176870
▁polish	176872
▁solo	176893
▁letter	177215
▁themselves	177239
▁hold	177241
▁reach	177278
ah	177331
▁computer	177424
▁gained	177435
▁cases	177621
▁largely	177635
ong	177887
▁estimated	178010
▁housing	178115
▁exchange	178350
ator	178463
▁poor	178936
▁mis	178970
▁bell	179111
▁ya	179303
▁stadium	179565
▁purchased	179598
▁view	179617
▁deep	179678
▁weeks	179746
▁operating	179799
▁singer	179807
▁planned	179852
▁programs	179981
▁typically	179986
▁giving	180138
ina	180177
▁idea	180197
▁comes	180216
▁revealed	180442
▁supreme	180447
▁characters	180486
▁scottish	180509
ium	180571
▁immediately	180685
▁smaller	180788
▁editor	180824
▁featuring	180986
▁whole	181028
▁function	181156
ier	181237
▁lines	181239
▁ku	181333
qui	181437
▁appear	181612
▁here	181854
▁inside	182051
▁cur	182309
▁nature	182543
▁champion	182625
▁commonly	182669
ver	182686
▁hours	182744
▁ru	182754
▁activities	182892
▁assigned	182930
▁iron	182989
▁writer	182999
▁tri	183145
▁focus	183227
▁memorial	183236
▁temple	183404
▁marriage	183769
▁sister	183941
▁effect	183943
▁cha	184019
▁know	184036
▁voice	184067
▁texas	184111
▁impact	184233
▁latin	184336
▁god	184427
▁travel	184601
▁double	184636
▁don	184698
▁continue	184719
▁yet	184723
io	184782
▁lee	184810
▁status	184839
▁fine	184950
ology	184957
▁produce	185077
▁compared	185114
▁dedicated	185337
▁scientific	185363
▁movie	185429
▁tu	185445
ff	185690
ping	186035
tra	186104
▁bus	186212
▁chart	187331
▁leave	187634
▁intended	187662
▁build	187742
▁troops	187921
▁median	188185
▁defense	188281
▁divided	188301
▁louis	188318
▁clear	188515
▁conducted	188608
▁ordered	188834
▁rugby	188851
▁agreement	188874
he	188882
▁grew	188982
▁pop	189061
▁tax	189140
▁metal	189236
▁rose	189363
▁frank	189845
▁issues	190021
▁trans	190025
▁face	190105
▁article	190110
▁highly	190464
▁baseball	190496
ran	190766
▁moving	190875
ney	190987
▁technical	191014
▁engine	191069
▁names	191122
vo	191298
les	191302
▁singles	191309
▁judge	191992
▁border	192051
▁cause	192137
▁discovered	192279
ut	192631
▁overall	192673
dy	192739
▁enough	192819
▁transport	192875
chi	192894
▁principal	193029
ov	193073
ical	193239
▁lies	193366
ey	193419
▁influence	194251
▁date	194293
▁mount	194294
▁castle	194360
▁mayor	194474
▁dark	194576
▁crew	194591
▁label	194735
▁ministry	194816
▁zealand	194965
▁smith	195022
▁host	195224
▁commander	195341
▁anti	195405
▁material	195465
fa	195470
ku	195528
lic	195587
tor	195661
▁hockey	195761
▁latter	195803
▁renamed	195822
▁germany	195894
▁directly	195898
▁dan	195926
▁dutch	195955
▁issue	196070
▁goals	196215
▁positive	196290
▁naval	196648
▁ge	196889
▁japan	196985
▁keep	197165
▁constructed	197278
▁y	197422
▁congress	197490
fi	197595
▁edward	198000
▁plans	198094
▁spring	198247
han	198720
▁contemporary	198913
▁secondary	198928
tion	198937
▁particular	199048
▁officially	199118
▁forms	199389
▁ice	199611
▁arrived	199798
▁cut	200128
▁nearby	200620
▁prize	200753
▁administration	200839
▁gun	200940
▁wanted	201033
▁physical	201084
▁dance	201556
▁drama	201581
▁attempt	201635
▁mission	201706
▁makes	201779
▁justice	202005
q	202078
▁matches	202279
▁covered	202746
▁likely	202757
▁issued	202818
▁airport	202821
▁participated	202903
▁speed	203221
▁code	203324
way	203329
▁europe	203429
▁jo	203776
▁rate	203960
▁championships	203977
wood	204299
led	204378
▁urban	204426
▁shortly	204480
▁regiment	204967
si	205353
▁decision	205809
▁oil	205857
▁told	206013
▁par	206678
▁sp	206787
▁pass	206859
▁primarily	206941
▁pacific	207148
▁forest	207198
▁response	207328
▁done	207371
▁parish	207431
▁appears	207476
▁industrial	207596
▁census	207728
▁sha	207843
▁ob	208051
▁heavy	208296
ship	208383
▁hot	208415
▁extended	208483
▁source	208615
▁asked	208833
▁surface	208915
▁pay	209008
▁whether	209176
ny	209340
mar	209368
▁broadcast	209438
▁initial	209799
▁transferred	209972
▁care	210503
ius	210651
▁itself	210674
▁jewish	210836
▁artists	210915
▁responsible	211087
▁imp	211152
▁branch	211337
▁heart	211380
one	211423
▁train	211472
▁alongside	211641
▁example	211828
▁mass	211872
▁martin	211902
▁companies	211976
▁minor	212055
▁master	212354
▁wall	212368
▁winter	212452
▁saint	212836
ell	212853
▁serve	212948
▁library	213036
▁ban	213105
▁managed	213161
ze	213225
▁failed	213442
▁greater	213627
▁joseph	214142
▁mac	214195
▁chairman	214738
▁join	214738
▁meaning	215152
ised	215155
▁ro	215158
▁ke	215213
▁del	215270
▁fi	215382
▁relationship	215607
▁uses	215655
▁prominent	215805
rs	215979
ger	216100
▁policy	216157
▁im	216182
▁direct	216402
▁sam	217057
▁bishop	217304
▁families	217504
▁review	217557
▁location	218382
▁allow	218423
▁industry	218594
▁magazine	218815
▁systems	218967
ville	219004
▁global	219104
▁culture	219126
▁terms	219425
▁length	219550
▁turned	219652
▁stone	219687
▁results	219825
▁republican	220078
▁changes	220146
▁appearance	220214
▁shot	220289
▁finally	220422
▁turn	220615
gen	220629
▁however	220868
▁specific	221156
▁l	221187
▁china	221205
que	221275
up	221332
▁provides	221547
▁des	222174
▁always	222528
▁pen	222556
▁fifth	222940
▁practice	223168
▁woman	223312
▁lord	223526
▁might	223777
▁har	223939
▁places	224146
▁meeting	224149
▁proposed	224179
▁irish	224323
per	224382
ize	224485
▁remaining	224492
ance	224519
ber	224544
lo	224631
▁fact	224703
▁longer	224760
▁loss	224779
▁digital	224838
▁fight	225285
▁below	225376
▁variety	225881
▁navy	225953
▁male	226016
▁edition	226068
▁prince	226082
▁washington	226132
lu	226204
▁victory	226212
▁academic	226283
▁offered	226339
▁nearly	226678
min	226738
▁ball	226756
▁canada	226772
▁word	226910
bo	226928
▁countries	227084
▁lack	227275
est	227295
▁complex	227433
▁recording	227529
con	227768
▁mary	227992
▁mainly	227994
▁acquired	228012
▁fall	228152
▁silver	228309
ji	228820
▁chi	229370
▁takes	229441
▁consists	229574
▁shown	229722
▁ancient	229884
▁graduated	230057
line	230342
▁money	230635
▁larger	230732
▁critical	230739
▁assistant	230827
▁report	230913
ts	231015
▁america	231074
▁promoted	231562
▁pan	231658
ak	232074
▁carried	232142
ence	232419
▁junior	232841
bi	232979
▁technology	233510
▁cover	233655
▁composed	233687
▁ben	234117
mer	234217
sen	234355
▁channel	234454
▁earlier	234964
▁child	235216
▁increase	235345
▁marine	235375
▁basketball	235526
▁presented	235616
▁property	235623
▁subject	235953
▁believed	236003
▁hand	236288
▁course	236383
ki	236400
▁california	236488
▁operation	237074
ang	237428
▁separate	237612
▁remains	237948
ful	237986
▁artist	238157
po	238182
▁deal	238206
▁province	238782
▁structure	238857
▁wood	238935
▁camp	239323
▁score	239497
▁feature	239534
▁success	239802
▁evidence	239857
▁leaving	240292
▁buildings	240334
▁foundation	240659
▁sun	240661
▁raised	240791
▁referred	240862
▁units	241269
▁passed	241705
▁greek	241709
ir	241767
▁ho	241889
▁po	241973
ative	242038
▁parliament	242084
▁person	242252
▁mountain	242835
▁seat	243011
▁administrative	243028
▁films	243135
▁call	243258
ve	243430
▁cross	243670
ally	243694
▁past	243721
▁kingdom	243789
▁helped	243841
▁claimed	244149
▁cost	244610
▁complete	244643
▁secretary	244991
▁operations	245763
▁recent	245828
▁municipality	246437
▁sound	246495
▁certain	246683
the	247432
▁security	247908
▁movement	247986
▁retired	248052
▁energy	248167
▁ver	248329
▁multiple	248343
pa	248421
▁ja	248614
▁week	248795
ster	249128
▁fellow	249231
▁subsequently	249651
▁wide	249723
▁income	249805
▁upper	249872
▁better	249882
ad	249886
▁pa	250011
▁press	250121
▁highway	250537
▁closed	250674
▁particularly	250904
▁give	250973
▁need	251065
▁assembly	251106
▁j	251106
▁going	251121
▁earned	251172
▁genus	251430
▁republic	251461
▁theatre	252901
▁officer	253082
▁youth	253121
▁supported	253408
▁australia	253506
▁mostly	253909
▁ta	254220
▁majority	254259
▁move	254964
ies	255120
▁famous	255142
▁entire	255505
▁market	256142
field	256468
vi	257349
ite	257453
▁valley	257552
▁serving	257777
▁forced	257895
▁nine	258762
▁fort	258796
▁square	258854
▁operated	259461
▁ma	259862
▁thought	259956
▁blue	260246
ford	260451
▁cast	260510
▁hard	260679
▁increased	260682
ial	260924
▁gas	261150
▁highest	262028
mi	262161
▁n	262611
▁collection	262647
▁leader	262886
▁required	263148
▁books	263337
▁too	263414
▁ad	264007
▁noted	264129
▁author	264180
▁caused	264346
▁novel	264349
▁democratic	264436
▁manager	264456
▁our	264600
▁religious	264976
▁possible	265138
▁running	265234
ner	266696
▁hospital	266841
▁brown	267385
▁management	268091
▁test	268167
▁interest	268239
ard	268384
▁competed	268701
▁means	269271
mo	269531
▁india	269633
▁student	269690
▁aircraft	269819
▁contains	270345
▁lo	270457
▁future	270500
▁limited	271147
▁brother	272041
▁competition	272121
▁unit	272342
▁captain	272417
▁lived	272535
▁france	273203
▁action	273205
▁plan	273433
▁peter	273446
▁starting	273504
▁staff	273615
▁richard	273842
less	274332
▁becoming	274623
▁already	274874
▁bo	275056
▁attack	275210
▁plant	275344
▁runs	275530
▁historical	275662
▁find	275931
▁others	276065
▁cultural	276749
▁ca	277250
za	277452
▁ship	277925
ci	277955
ty	277956
▁bridge	278303
▁festival	278411
▁entered	278481
▁x	278492
▁plays	278557
▁launched	278624
un	279077
▁prime	279452
▁h	279486
▁generally	279511
▁selected	279566
▁strong	279823
▁ha	280541
▁mark	280585
▁commission	280867
ization	280899
▁medal	281186
by	281364
▁ended	281509
▁awards	281577
▁mc	281868
▁ba	281899
▁food	281921
ni	281953
▁musical	282583
▁studied	282635
▁base	282930
▁groups	283196
▁tournament	283200
▁opening	283359
ting	283465
▁related	283476
▁style	283578
ent	284201
▁executive	284579
▁port	284592
▁uk	285535
▁shows	286433
▁tv	287990
▁hill	288627
ja	288729
▁parts	289363
▁organization	289426
▁create	290016
at	290235
▁spanish	290263
ter	290284
▁associated	290823
▁henry	291246
▁numerous	291606
▁rural	291660
ko	291693
▁financial	291798
▁successful	291828
▁trade	291833
▁sometimes	292426
ham	292503
ha	293045
▁r	293448
▁standard	293504
▁initially	293507
▁sir	293688
▁legal	293967
▁news	294094
▁changed	294281
▁whom	294563
▁key	294748
▁goal	294785
▁individual	294981
▁christian	295075
▁te	295173
▁owned	295275
ck	296421
▁command	296590
▁ni	296766
▁writing	297691
▁ground	297758
▁vi	297878
▁bi	297976
▁instead	298068
▁annual	298524
▁soviet	298594
▁especially	298786
▁allowed	299735
▁got	300278
▁additional	300698
▁killed	301274
▁bank	301390
▁thus	301552
▁michael	302013
▁records	302161
▁defeated	303267
▁spent	303429
▁size	303774
▁inter	303847
▁coast	304108
▁data	304153
▁governor	304400
▁network	304478
▁studies	304592
▁access	305251
▁fa	305347
▁above	305505
▁process	306124
▁change	306545
▁ar	306610
▁hit	306737
▁campaign	307175
wa	308544
der	308817
▁come	308845
▁significant	309573
▁contract	309955
▁traditional	310069
ya	310079
▁schools	311027
▁higher	311052
▁night	311478
▁catholic	311836
▁ever	312163
▁behind	312752
▁commercial	313054
am	313713
▁towards	313875
▁lu	314657
▁los	314717
▁du	315780
▁taking	315796
▁months	316012
▁arts	316542
di	317002
▁female	317108
▁notable	317188
▁daughter	318301
▁low	318404
▁mo	318858
▁conference	319173
ish	319265
ler	319901
▁type	320107
ness	320147
▁represented	320206
▁start	320271
▁f	320326
▁episode	320828
ge	320905
▁star	321046
▁listed	321496
▁previously	321608
ul	321946
um	322078
os	322475
▁ex	323221
▁active	323225
im	323258
▁introduced	323420
▁whose	323579
▁mother	323837
▁stage	324240
▁big	324279
be	324852
▁economic	325311
▁section	326049
▁space	326305
▁bill	326457
▁winning	326675
▁van	326979
▁tour	327117
sa	327723
▁sports	327928
▁academy	328152
men	329154
▁performance	329600
▁love	329643
▁england	329654
▁african	329982
▁foreign	330476
▁events	330656
▁wife	330670
va	330913
▁language	330914
▁approximately	331341
▁degree	331393
▁stated	331624
li	332148
▁studio	332213
▁regular	332306
▁outside	332557
▁rest	332757
▁am	333074
▁brought	333153
▁su	333387
▁real	333717
▁primary	333987
sh	334138
ted	334847
▁ne	335138
▁chinese	335530
▁italian	335846
lin	336315
▁added	336681
▁provide	336829
▁regional	337061
et	337309
▁bay	337466
den	337858
▁m	338131
▁roman	338584
▁rather	339316
▁thomas	339688
ba	339737
▁ka	340386
▁ko	341001
▁almost	341717
ke	341872
▁charles	342703
▁attended	343448
▁scored	343984
▁beginning	344247
▁v	344534
go	344789
▁historic	346449
▁character	346541
▁placed	346615
▁rights	347496
ur	347587
▁natural	348275
ce	348495
▁decided	348751
▁capital	349228
▁away	349575
▁model	349608
▁points	350227
▁songs	351388
▁independent	351443
▁soon	352572
▁paul	352860
▁least	352987
▁science	353268
▁body	353478
▁russian	353710
▁native	354125
▁addition	354162
▁reached	355195
▁either	356516
ie	357158
▁via	358238
▁met	359138
▁areas	359559
▁light	359591
▁se	360245
▁provided	360946
▁players	361135
▁usually	361421
▁see	361706
id	362072
▁coach	362567
▁himself	363329
▁features	363359
▁replaced	364698
▁centre	365563
▁involved	365998
▁release	366836
▁fourth	367051
▁available	367309
▁prior	367327
▁ii	367594
▁canadian	368580
▁close	369175
▁level	370285
▁senior	370795
▁election	370950
ri	371040
▁saw	371573
▁seen	372599
me	372739
ous	372774
▁result	372970
▁japanese	373023
▁ran	373211
▁range	373271
ion	374768
▁forces	375871
▁museum	375934
▁mar	376268
▁eight	376638
ga	377051
▁middle	377263
▁lower	377909
▁medical	378287
ating	379144
▁professor	381836
▁information	382488
▁study	383058
▁previous	383192
▁committee	383477
▁able	383635
▁society	383688
▁david	383848
▁super	384717
▁get	385038
▁present	385583
▁sub	385926
▁completed	386449
▁story	386936
▁li	387133
do	387472
▁grand	387542
▁robert	388127
▁does	388913
▁institute	388915
▁awarded	389121
▁return	389858
▁help	389953
▁lake	390299
▁half	390946
▁green	390986
▁put	391055
tic	391615
ling	392916
▁directed	393010
▁k	393416
▁da	393431
▁media	393736
▁class	393859
▁gold	393917
▁training	394760
▁full	395722
age	395791
▁case	396289
▁front	396433
▁featured	396836
▁term	397774
▁services	398032
▁fire	398258
▁includes	398336
▁reported	399928
▁private	400331
▁largest	400602
▁p	401015
▁london	401063
▁g	401207
▁event	402322
▁teams	403617
▁followed	403648
▁eventually	403890
▁route	405635
▁sa	407927
ca	408070
▁sent	409192
▁official	410373
▁must	411299
▁leading	411353
▁together	411892
as	411918
▁taken	411964
▁currently	412557
se	412591
▁century	413292
▁days	413352
ant	415706
▁remained	416238
▁performed	416315
▁civil	417782
▁designed	418243
no	419150
▁race	419296
▁rock	419955
▁right	420010
▁should	420612
▁federal	420633
▁times	421057
▁health	422228
ary	422241
▁region	423338
▁less	424941
▁island	425119
▁refer	425601
▁seven	425822
▁le	426428
▁sold	426557
▁finished	426832
▁far	427319
▁little	427328
▁construction	430478
ti	430789
land	431609
▁round	432567
▁battle	432639
▁d	434321
▁bar	434573
▁na	435494
▁post	435632
▁you	435653
ism	435831
▁track	435992
▁gave	436128
▁t	436939
ka	437861
▁railway	440104
ine	440897
▁project	441041
▁o	442652
▁hall	442745
▁eastern	442899
ized	443211
▁program	444515
j	444634
▁good	445191
▁w	446685
▁never	447024
▁el	447368
ro	447684
ch	450204
▁indian	451467
▁despite	452093
▁women	452615
▁current	453111
▁video	453838
▁police	455306
▁children	455338
▁list	455594
▁force	456166
▁lead	456335
te	456701
▁design	456753
▁australian	456791
▁average	457350
▁championship	457748
▁throughout	458387
▁living	459213
▁period	459767
▁originally	459809
▁developed	460137
▁pre	460525
▁james	460610
▁minister	462748
▁my	463163
▁upon	463401
▁chief	464238
▁version	464899
▁site	465237
▁country	465362
▁across	466996
▁personal	470005
▁act	470090
▁human	470109
▁street	471608
▁george	473017
▁sea	473228
▁once	473262
▁u	475387
▁common	476503
▁father	476914
▁match	478036
el	478736
▁position	480255
▁ten	480352
▁control	482805
▁formed	483236
▁similar	483744
st	484663
▁making	489074
▁office	490172
▁point	491632
▁player	494660
▁me	495110
▁playing	496583
▁live	496740
▁works	498583
co	499189
▁how	501851
▁appeared	503338
▁education	504266
▁important	504343
▁run	505394
▁debut	505752
▁free	507026
la	508760
▁union	509155
▁business	509521
▁pro	509782
▁recorded	510048
▁elected	511138
[...]
